{
  "version": "1.0",
  "truncation": null,
  "padding": null,
  "added_tokens": [
    {
      "id": 0,
      "content": "<|endoftext|>",
      "single_word": false,
      "lstrip": false,
      "rstrip": false,
      "normalized": false,
      "special": true
    },
    {
      "id": 1,
      "content": "<|im_start|>",
      "single_word": false,
      "lstrip": false,
      "rstrip": false,
      "normalized": false,
      "special": true
    },
    {
      "id": 2,
      "content": "<|im_end|>",
      "single_word": false,
      "lstrip": false,
      "rstrip": false,
      "normalized": false,
      "special": true
    }
  ],
  "normalizer": null,
  "pre_tokenizer": {
    "type": "ByteLevel",
    "add_prefix_space": false,
    "trim_offsets": true,
    "use_regex": true
  },
  "post_processor": null,
  "decoder": {
    "type": "ByteLevel",
    "add_prefix_space": true,
    "trim_offsets": true,
    "use_regex": true
  },
  "model": {
    "type": "BPE",
    "dropout": null,
    "unk_token": null,
    "continuing_subword_prefix": null,
    "end_of_word_suffix": null,
    "fuse_unk": false,
    "byte_fallback": false,
    "ignore_merges": false,
    "vocab": {
      "<|endoftext|>": 0,
      "<|im_start|>": 1,
      "<|im_end|>": 2,
      "!": 3,
      "\"": 4,
      "#": 5,
      "$": 6,
      "%": 7,
      "&": 8,
      "'": 9,
      "(": 10,
      ")": 11,
      "*": 12,
      "+": 13,
      ",": 14,
      "-": 15,
      ".": 16,
      "/": 17,
      "0": 18,
      "1": 19,
      "2": 20,
      "3": 21,
      "4": 22,
      "5": 23,
      "6": 24,
      "7": 25,
      "8": 26,
      "9": 27,
      ":": 28,
      ";": 29,
      "<": 30,
      "=": 31,
      ">": 32,
      "?": 33,
      "@": 34,
      "A": 35,
      "B": 36,
      "C": 37,
      "D": 38,
      "E": 39,
      "F": 40,
      "G": 41,
      "H": 42,
      "I": 43,
      "J": 44,
      "K": 45,
      "L": 46,
      "M": 47,
      "N": 48,
      "O": 49,
      "P": 50,
      "Q": 51,
      "R": 52,
      "S": 53,
      "T": 54,
      "U": 55,
      "V": 56,
      "W": 57,
      "X": 58,
      "Y": 59,
      "Z": 60,
      "[": 61,
      "\\": 62,
      "]": 63,
      "^": 64,
      "_": 65,
      "`": 66,
      "a": 67,
      "b": 68,
      "c": 69,
      "d": 70,
      "e": 71,
      "f": 72,
      "g": 73,
      "h": 74,
      "i": 75,
      "j": 76,
      "k": 77,
      "l": 78,
      "m": 79,
      "n": 80,
      "o": 81,
      "p": 82,
      "q": 83,
      "r": 84,
      "s": 85,
      "t": 86,
      "u": 87,
      "v": 88,
      "w": 89,
      "x": 90,
      "y": 91,
      "z": 92,
      "{": 93,
      "|": 94,
      "}": 95,
      "~": 96,
      "¡": 97,
      "¢": 98,
      "£": 99,
      "¤": 100,
      "¥": 101,
      "¦": 102,
      "§": 103,
      "¨": 104,
      "©": 105,
      "ª": 106,
      "«": 107,
      "¬": 108,
      "®": 109,
      "¯": 110,
      "°": 111,
      "±": 112,
      "²": 113,
      "³": 114,
      "´": 115,
      "µ": 116,
      "¶": 117,
      "·": 118,
      "¸": 119,
      "¹": 120,
      "º": 121,
      "»": 122,
      "¼": 123,
      "½": 124,
      "¾": 125,
      "¿": 126,
      "À": 127,
      "Á": 128,
      "Â": 129,
      "Ã": 130,
      "Ä": 131,
      "Å": 132,
      "Æ": 133,
      "Ç": 134,
      "È": 135,
      "É": 136,
      "Ê": 137,
      "Ë": 138,
      "Ì": 139,
      "Í": 140,
      "Î": 141,
      "Ï": 142,
      "Ð": 143,
      "Ñ": 144,
      "Ò": 145,
      "Ó": 146,
      "Ô": 147,
      "Õ": 148,
      "Ö": 149,
      "×": 150,
      "Ø": 151,
      "Ù": 152,
      "Ú": 153,
      "Û": 154,
      "Ü": 155,
      "Ý": 156,
      "Þ": 157,
      "ß": 158,
      "à": 159,
      "á": 160,
      "â": 161,
      "ã": 162,
      "ä": 163,
      "å": 164,
      "æ": 165,
      "ç": 166,
      "è": 167,
      "é": 168,
      "ê": 169,
      "ë": 170,
      "ì": 171,
      "í": 172,
      "î": 173,
      "ï": 174,
      "ð": 175,
      "ñ": 176,
      "ò": 177,
      "ó": 178,
      "ô": 179,
      "õ": 180,
      "ö": 181,
      "÷": 182,
      "ø": 183,
      "ù": 184,
      "ú": 185,
      "û": 186,
      "ü": 187,
      "ý": 188,
      "þ": 189,
      "ÿ": 190,
      "Ā": 191,
      "ā": 192,
      "Ă": 193,
      "ă": 194,
      "Ą": 195,
      "ą": 196,
      "Ć": 197,
      "ć": 198,
      "Ĉ": 199,
      "ĉ": 200,
      "Ċ": 201,
      "ċ": 202,
      "Č": 203,
      "č": 204,
      "Ď": 205,
      "ď": 206,
      "Đ": 207,
      "đ": 208,
      "Ē": 209,
      "ē": 210,
      "Ĕ": 211,
      "ĕ": 212,
      "Ė": 213,
      "ė": 214,
      "Ę": 215,
      "ę": 216,
      "Ě": 217,
      "ě": 218,
      "Ĝ": 219,
      "ĝ": 220,
      "Ğ": 221,
      "ğ": 222,
      "Ġ": 223,
      "ġ": 224,
      "Ģ": 225,
      "ģ": 226,
      "Ĥ": 227,
      "ĥ": 228,
      "Ħ": 229,
      "ħ": 230,
      "Ĩ": 231,
      "ĩ": 232,
      "Ī": 233,
      "ī": 234,
      "Ĭ": 235,
      "ĭ": 236,
      "Į": 237,
      "į": 238,
      "İ": 239,
      "ı": 240,
      "Ĳ": 241,
      "ĳ": 242,
      "Ĵ": 243,
      "ĵ": 244,
      "Ķ": 245,
      "ķ": 246,
      "ĸ": 247,
      "Ĺ": 248,
      "ĺ": 249,
      "Ļ": 250,
      "ļ": 251,
      "Ľ": 252,
      "ľ": 253,
      "Ŀ": 254,
      "ŀ": 255,
      "Ł": 256,
      "ł": 257,
      "Ń": 258,
      "ï¼": 259,
      "ä¸": 260,
      "ãĢ": 261,
      "ï¼Į": 262,
      "çļ": 263,
      "çļĦ": 264,
      "äº": 265,
      "ãĢĤ": 266,
      "æľ": 267,
      "åı": 268,
      "åľ": 269,
      "åħ": 270,
      "å¤": 271,
      "ä»": 272,
      "å¹": 273,
      "åĲ": 274,
      "åĽ": 275,
      "çĶ": 276,
      "åĪ": 277,
      "ãĢģ": 278,
      "å®": 279,
      "æĺ": 280,
      "åį": 281,
      "ä½": 282,
      "æĹ": 283,
      "å°": 284,
      "æĸ": 285,
      "è¿": 286,
      "åľ¨": 287,
      "å¹´": 288,
      "ä¸Ń": 289,
      "ä¹": 290,
      "åŃ": 291,
      "ç»": 292,
      "åĽ½": 293,
      "çī": 294,
      "å¸": 295,
      "ä¸º": 296,
      "ä¸Ģ": 297,
      "åĮ": 298,
      "åĬ": 299,
      "æĪ": 300,
      "ç§": 301,
      "æĺ¯": 302,
      "å·": 303,
      "äºİ": 304,
      "å¼": 305,
      "ä¼": 306,
      "å±": 307,
      "åĨ": 308,
      "ï¼Ī": 309,
      "ï¼ī": 310,
      "æĿ": 311,
      "å¤§": 312,
      "è¯": 313,
      "åľ°": 314,
      "æľī": 315,
      "äºº": 316,
      "è®": 317,
      "éĻ": 318,
      "éĩ": 319,
      "å¾": 320,
      "åº": 321,
      "çº": 322,
      "åĩ": 323,
      "è¡": 324,
      "çĽ": 325,
      "æĭ": 326,
      "00": 327,
      "æī": 328,
      "æł": 329,
      "æŃ": 330,
      "ä»¥": 331,
      "åŃ¦": 332,
      "èĢ": 333,
      "èĩ": 334,
      "åĴ": 335,
      "æµ": 336,
      "éĢ": 337,
      "çĶŁ": 338,
      "éķ": 339,
      "éĥ": 340,
      "åĴĮ": 341,
      "æ°": 342,
      "å½": 343,
      "æŀ": 344,
      "èµ": 345,
      "éĺ": 346,
      "å¯": 347,
      "æĶ": 348,
      "æķ": 349,
      "æĹ¥": 350,
      "çİ": 351,
      "åī": 352,
      "åİ": 353,
      "åŁ": 354,
      "åĪĨ": 355,
      "çī©": 356,
      "æľĪ": 357,
      "åĲİ": 358,
      "åĲį": 359,
      "è¾": 360,
      "çŃ": 361,
      "äºĨ": 362,
      "æ²": 363,
      "æ³": 364,
      "ç±": 365,
      "è§": 366,
      "éķ¿": 367,
      "åĳ": 368,
      "ä¼ļ": 369,
      "å¥": 370,
      "æĹ¶": 371,
      "è½": 372,
      "èĥ": 373,
      "çĲ": 374,
      "éĿ": 375,
      "âĢ": 376,
      "æĪĲ": 377,
      "åıĬ": 378,
      "ä¸ŃåĽ½": 379,
      "è´": 380,
      "ä¸ª": 381,
      "ä¸Ĭ": 382,
      "19": 383,
      "ç«": 384,
      "æ¯": 385,
      "åĮº": 386,
      "ä¸į": 387,
      "éĹ": 388,
      "çĶ±": 389,
      "ï¼ļ": 390,
      "çļĦæ": 391,
      "çŃī": 392,
      "åįĹ": 393,
      "æĢ": 394,
      "åĩº": 395,
      "è¥": 396,
      "è¥¿": 397,
      "åīį": 398,
      "ç±³": 399,
      "è¡Į": 400,
      "ä»ĸ": 401,
      "ç¬": 402,
      "éĥ¨": 403,
      "æ´": 404,
      "æµ·": 405,
      "ç§į": 406,
      "è¢": 407,
      "æĸ¯": 408,
      "æĬ": 409,
      "æ¸": 410,
      "ä¸İ": 411,
      "ä¹ĭ": 412,
      "å±±": 413,
      "åıĳ": 414,
      "å¸ĥ": 415,
      "å·¥": 416,
      "çĶ¨": 417,
      "éĽ": 418,
      "åħ¶": 419,
      "å¤ļ": 420,
      "ä¿": 421,
      "åĪ°": 422,
      "ä½ľ": 423,
      "ç½": 424,
      "æĽ": 425,
      "æİ": 426,
      "èĬ": 427,
      "åħ¬": 428,
      "ç¬¬": 429,
      "ç§ĳ": 430,
      "çī¹": 431,
      "¤į": 432,
      "éģ": 433,
      "200": 434,
      "æ±": 435,
      "å¿": 436,
      "è¢«": 437,
      "èĩ³": 438,
      "æ¬": 439,
      "è·": 440,
      "ç¾": 441,
      "æľ¬": 442,
      "¤įçī©": 443,
      "ä¸»": 444,
      "èĢĮ": 445,
      "ä¸ĭ": 446,
      "é«": 447,
      "èĭ": 448,
      "é«ĺ": 449,
      "åĿ": 450,
      "å¹¶": 451,
      "èĪ": 452,
      "ãĢĭ": 453,
      "ãĢĬ": 454,
      "åı¯": 455,
      "æľº": 456,
      "èį": 457,
      "åı°": 458,
      "é¢": 459,
      "å±ŀ": 460,
      "é¦": 461,
      "å§": 462,
      "å°Ķ": 463,
      "åĨĽ": 464,
      "æĿ¥": 465,
      "çĽ®": 466,
      "å®¶": 467,
      "åŃĲ": 468,
      "å»": 469,
      "ä¾": 470,
      "åĬ¨": 471,
      "æĸ¹": 472,
      "èī": 473,
      "åĮĹ": 474,
      "èģ": 475,
      "åĵ": 476,
      "é»": 477,
      "å¯¹": 478,
      "å¼Ģ": 479,
      "å²": 480,
      "è¿Ļ": 481,
      "æ¹": 482,
      "çŁ": 483,
      "åĲĮ": 484,
      "æ³ķ": 485,
      "æĸ°": 486,
      "çĲĥ": 487,
      "ä½į": 488,
      "äºļ": 489,
      "èĩª": 490,
      "æľĢ": 491,
      "åĬł": 492,
      "éĻĨ": 493,
      "æ°ĳ": 494,
      "ä¸ľ": 495,
      "æĮ": 496,
      "æŀĹ": 497,
      "å¸Ĥ": 498,
      "åĳĺ": 499,
      "å£": 500,
      "æĸĩ": 501,
      "¦ģ": 502,
      "ãĢĮ": 503,
      "ãĢį": 504,
      "é©": 505,
      "ä¸ī": 506,
      "ä¹Ł": 507,
      "è½¦": 508,
      "ç©": 509,
      "åľº": 510,
      "è¿ĩ": 511,
      "ç¾İ": 512,
      "å¾Ĺ": 513,
      "è¶": 514,
      "åĪĨå¸ĥ": 515,
      "çİ°": 516,
      "ä»£": 517,
      "åĽł": 518,
      "æīĢ": 519,
      "ç»ı": 520,
      "çĶŁéķ¿": 521,
      "éĺŁ": 522,
      "å°ı": 523,
      "Â·": 524,
      "å¼ķ": 525,
      "æŃ¤": 526,
      "20": 527,
      "æĶ¿": 528,
      "è¦ģ": 529,
      "èĥ½": 530,
      "åľ°åĮº": 531,
      "åº¦": 532,
      "æĭī": 533,
      "åĨħ": 534,
      "è°": 535,
      "èµĽ": 536,
      "å»º": 537,
      "çľ": 538,
      "èĤ": 539,
      "åŃ¦åĲį": 540,
      "çĶµ": 541,
      "ï¼ļï¼ī": 542,
      "ä½ĵ": 543,
      "å¤§éĻĨ": 544,
      "å¼ı": 545,
      "é¡": 546,
      "éĹ´": 547,
      "çŃīåľ°": 548,
      "æĪĺ": 549,
      "ä»»": 550,
      "çģ": 551,
      "å¦": 552,
      "éĩĮ": 553,
      "æĻ": 554,
      "äºĮ": 555,
      "è·¯": 556,
      "å®ļ": 557,
      "ä¸ŃåĽ½å¤§éĻĨ": 558,
      "è¿Ľ": 559,
      "ç¤": 560,
      "åĲĪ": 561,
      "âĢľ": 562,
      "çķ": 563,
      "âĢĿ": 564,
      "å½ĵ": 565,
      "ä¸ĸ": 566,
      "æ¡": 567,
      "å¤ĸ": 568,
      "åı·": 569,
      "ä½Ĩ": 570,
      "åħĭ": 571,
      "èĲ": 572,
      "çº¿": 573,
      "è¡¨": 574,
      "æľª": 575,
      "èİ": 576,
      "éģĵ": 577,
      "åħ¥": 578,
      "åĽĽ": 579,
      "éŁ": 580,
      "åĮĸ": 581,
      "å¾·": 582,
      "éĩį": 583,
      "æ¬¡": 584,
      "é¾": 585,
      "åĪ©": 586,
      "é£": 587,
      "äºĭ": 588,
      "ï¼īï¼Į": 589,
      "ä¸ļ": 590,
      "çĻ": 591,
      "æı": 592,
      "ä½¿": 593,
      "ä¸Ģä¸ª": 594,
      "ç¥": 595,
      "çĽ®åīį": 596,
      "åħ¨": 597,
      "éĿ¢": 598,
      "å°Ĩ": 599,
      "ç«ĭ": 600,
      "åŀ": 601,
      "å¤©": 602,
      "ä»¥åıĬ": 603,
      "å¸¸": 604,
      "æŁ": 605,
      "ç§°": 606,
      "åĬĽ": 607,
      "éĩĳ": 608,
      "éĵ": 609,
      "å¹³": 610,
      "å¹¿": 611,
      "èįī": 612,
      "ç¦": 613,
      "çĲĨ": 614,
      "èģĶ": 615,
      "åŁ¹": 616,
      "ç®": 617,
      "èĬ±": 618,
      "ä¸¤": 619,
      "è®¾": 620,
      "åĪ¶": 621,
      "çİĭ": 622,
      "æľŁ": 623,
      "æĪĸ": 624,
      "å®ī": 625,
      "ç¼": 626,
      "ç³": 627,
      "äº§": 628,
      "ç¨": 629,
      "æķĻ": 630,
      "çļĦæ¤įçī©": 631,
      "åįģ": 632,
      "èĢħ": 633,
      "é©¬": 634,
      "æį": 635,
      "éĥ½": 636,
      "ä¸ŃåĽ½å¤§éĻĨçļĦ": 637,
      "å±ŀçļĦæ¤įçī©": 638,
      "çł": 639,
      "ç«Ļ": 640,
      "æĭĶ": 641,
      "åİŁ": 642,
      "çĤ": 643,
      "ä»¬": 644,
      "éļ": 645,
      "æĦ": 646,
      "èĽ": 647,
      "å£«": 648,
      "è¯¥": 649,
      "éĢļ": 650,
      "æĢ§": 651,
      "çĶŁéķ¿äºİ": 652,
      "æģ": 653,
      "äººå·¥": 654,
      "æł½": 655,
      "èī²": 656,
      "ï¼Ľ": 657,
      "æŃ£": 658,
      "æł½åŁ¹": 659,
      "10": 660,
      "åŁº": 661,
      "æµ·æĭĶ": 662,
      "å·´": 663,
      "çĪ": 664,
      "å¼ķç§į": 665,
      "å·ŀ": 666,
      "äººå·¥å¼ķç§į": 667,
      "äººå·¥å¼ķç§įæł½åŁ¹": 668,
      "æĥ": 669,
      "çĶ±äººå·¥å¼ķç§įæł½åŁ¹": 670,
      "æ¯Ķ": 671,
      "åħ±": 672,
      "æķ°": 673,
      "å°ļ": 674,
      "æ¤įçī©": 675,
      "é¾Ļ": 676,
      "æĺİ": 677,
      "ç±³çļĦ": 678,
      "åŀĭ": 679,
      "ç³»": 680,
      "ç»Ħ": 681,
      "é»Ħ": 682,
      "è¾¾": 683,
      "çĽ¸": 684,
      "æ¼": 685,
      "è¯Ń": 686,
      "éĤ": 687,
      "çĦ": 688,
      "éĶ": 689,
      "èĭ±": 690,
      "çĶŁéķ¿äºİæµ·æĭĶ": 691,
      "ç±³çļĦåľ°åĮº": 692,
      "èĳ": 693,
      "æ°´": 694,
      "è¿Ĳ": 695,
      "æ¹¾": 696,
      "èĽĽ": 697,
      "åĶ": 698,
      "å·²": 699,
      "åħ°": 700,
      "å½¢": 701,
      "çĸ": 702,
      "è£": 703,
      "éĻ¢": 704,
      "ç½Ĺ": 705,
      "åı¸": 706,
      "åģ": 707,
      "å°¼": 708,
      "éĢī": 709,
      "æıĲ": 710,
      "ä»İ": 711,
      "åŁİ": 712,
      "å¡": 713,
      "çº¦": 714,
      "åħ³": 715,
      "å¦Ĥ": 716,
      "åı¶": 717,
      "è®¡": 718,
      "éŁ³": 719,
      "å¢": 720,
      "æ±Ł": 721,
      "å°ļæľª": 722,
      "åįİ": 723,
      "æĢ»": 724,
      "çĦ¶": 725,
      "éĿĴ": 726,
      "åĢ": 727,
      "æĹł": 728,
      "éĺ¿": 729,
      "èµ·": 730,
      "å¿ĥ": 731,
      "æł¼": 732,
      "æĺŁ": 733,
      "çĽ®åīįå°ļæľª": 734,
      "åĪĨå¸ĥäºİ": 735,
      "çĽ®åīįå°ļæľªçĶ±äººå·¥å¼ķç§įæł½åŁ¹": 736,
      "éħ": 737,
      "ä¹Ĳ": 738,
      "åĪĹ": 739,
      "é¦ĸ": 740,
      "ç©º": 741,
      "äºĳ": 742,
      "éĩı": 743,
      "ĊĊ": 744,
      "è±": 745,
      "éĴ": 746,
      "ç»Ł": 747,
      "er": 748,
      "å²Ľ": 749,
      "åĲĳ": 750,
      "èĮ": 751,
      "çĭ": 752,
      "ãģ": 753,
      "å°±": 754,
      "æ²»": 755,
      "12": 756,
      "çĥ": 757,
      "èĹ": 758,
      "å½±": 759,
      "åħĥ": 760,
      "çı": 761,
      "æ®": 762,
      "ç´": 763,
      "æ¶": 764,
      "å®ŀ": 765,
      "é²": 766,
      "å§ĭ": 767,
      "åı°æ¹¾": 768,
      "åºĶ": 769,
      "æ¼Ķ": 770,
      "æ·": 771,
      "åĽ¢": 772,
      "çŁ³": 773,
      "åıĹ": 774,
      "æº": 775,
      "åĮħ": 776,
      "ç»ĵ": 777,
      "åĬ¡": 778,
      "åı¯ä»¥": 779,
      "ç±³èĩ³": 780,
      "å¥³": 781,
      "an": 782,
      "çĽ´": 783,
      "éľ": 784,
      "18": 785,
      "æ¸¯": 786,
      "çķĮ": 787,
      "æİ¥": 788,
      "åı£": 789,
      "ç¨ĭ": 790,
      "é¦Ļ": 791,
      "èĴ": 792,
      "11": 793,
      "ç¿": 794,
      "çº§": 795,
      "æĶ¹": 796,
      "æľĿ": 797,
      "æ£": 798,
      "æīĭ": 799,
      "çļĦçī¹": 800,
      "æ¢": 801,
      "å¤ª": 802,
      "åıĤ": 803,
      "æľ¨": 804,
      "è®®": 805,
      "æ»": 806,
      "åºľ": 807,
      "ä¿Ŀ": 808,
      "åı¤": 809,
      "æ²³": 810,
      "éĹ¨": 811,
      "äºĽ": 812,
      "åĩ»": 813,
      "199": 814,
      "å¤Ħ": 815,
      "æĴ": 816,
      "çĬ": 817,
      "åĪĻ": 818,
      "æĹ¥æľ¬": 819,
      "èı": 820,
      "åıª": 821,
      "å·Ŀ": 822,
      "èĦ": 823,
      "å§Ķ": 824,
      "åĿ¡": 825,
      "èĻ": 826,
      "éķĩ": 827,
      "è¯´": 828,
      "in": 829,
      "ä¼ł": 830,
      "æĽ¾": 831,
      "è§Ĩ": 832,
      "æ´²": 833,
      "çľģ": 834,
      "åıį": 835,
      "çĤ¹": 836,
      "é¢Ĩ": 837,
      "èº": 838,
      "æĦı": 839,
      "åĲĦ": 840,
      "åįķ": 841,
      "æ¹ĸ": 842,
      "ä¸ĩ": 843,
      "å®ĥ": 844,
      "å¯¼": 845,
      "ç±»": 846,
      "åħ¬åı¸": 847,
      "äº¤": 848,
      "èĳĹ": 849,
      "æµģ": 850,
      "æľīæ¤įçī©": 851,
      "ç¡": 852,
      "è¿ĺ": 853,
      "or": 854,
      "äºĶ": 855,
      "æŀľ": 856,
      "éª": 857,
      "èİ·": 858,
      "ç¾İåĽ½": 859,
      "ç²": 860,
      "åĵģ": 861,
      "çļĦçī¹æľīæ¤įçī©": 862,
      "ä¸ĵ": 863,
      "ä¹¦": 864,
      "æĿ¡": 865,
      "æĿĳ": 866,
      "èº«": 867,
      "æĮĩ": 868,
      "éĽĨ": 869,
      "åĸ": 870,
      "å°ĳ": 871,
      "å¼ł": 872,
      "æĽ´": 873,
      "åĽŀ": 874,
      "åĪ«": 875,
      "åİ¿": 876,
      "ç»´": 877,
      "ä¸ŃåĽ½çļĦçī¹æľīæ¤įçī©": 878,
      "æ¨": 879,
      "èĭı": 880,
      "15": 881,
      "ä¸¾": 882,
      "16": 883,
      "åħī": 884,
      "ä¹ī": 885,
      "å¸¦": 886,
      "åĪĨå¸ĥåľ¨": 887,
      "å¼Ģå§ĭ": 888,
      "ç¤¾": 889,
      "äºĳåįĹ": 890,
      "éĻħ": 891,
      "ä½¿çĶ¨": 892,
      "on": 893,
      "åı²": 894,
      "çĹ": 895,
      "è®¤": 896,
      "å¸Ī": 897,
      "è§ģ": 898,
      "å±ķ": 899,
      "å¨": 900,
      "å¤´": 901,
      "éĵģ": 902,
      "æ°Ķ": 903,
      "åł": 904,
      "ç¬¬ä¸Ģ": 905,
      "åķ": 906,
      "æĬ¥": 907,
      "åıĸ": 908,
      "äº¬": 909,
      "è¿ĳ": 910,
      "åį¡": 911,
      "è§Ĵ": 912,
      "ç®¡": 913,
      "æĪĲä¸º": 914,
      "åİĨ": 915,
      "åĲī": 916,
      "æīĵ": 917,
      "åıĪ": 918,
      "èĬĤ": 919,
      "æŃĮ": 920,
      "å®ĺ": 921,
      "è¾¹": 922,
      "æĮģ": 923,
      "çĻ½": 924,
      "æ¸¸": 925,
      "åĨ³": 926,
      "æ¯Ľ": 927,
      "ç¦ı": 928,
      "åıĺ": 929,
      "éĿŀ": 930,
      "æĽ²": 931,
      "éĢł": 932,
      "è§£": 933,
      "èĪª": 934,
      "çīĩ": 935,
      "ä»¶": 936,
      "æ²¡": 937,
      "åĭ": 938,
      "æł¡": 939,
      "è¶³": 940,
      "åĻ": 941,
      "å¤§åŃ¦": 942,
      "åŃĹ": 943,
      "æľ¯": 944,
      "åħļ": 945,
      "çĶŁäºİ": 946,
      "ï¼īãĢĤ": 947,
      "åĽ¾": 948,
      "çīĪ": 949,
      "åī§": 950,
      "åĳ½": 951,
      "çĿ": 952,
      "éĽĦ": 953,
      "ä»¥åıĬä¸ŃåĽ½å¤§éĻĨçļĦ": 954,
      "å¾Ģ": 955,
      "åį³": 956,
      "çļĦä¸Ģ": 957,
      "è¿ŀ": 958,
      "åħĪ": 959,
      "é£İ": 960,
      "æĭ¬": 961,
      "è½¬": 962,
      "åŃ£": 963,
      "åĨ¬": 964,
      "èĪ¬": 965,
      "ç¤º": 966,
      "åį°": 967,
      "åĨį": 968,
      "æį®": 969,
      "èĹı": 970,
      "è£ħ": 971,
      "å¥ĸ": 972,
      "çº¢": 973,
      "æ²Ļ": 974,
      "èģĮ": 975,
      "ä½įäºİ": 976,
      "ä¸Ķ": 977,
      "æ´»": 978,
      "æĶ¿åºľ": 979,
      "13": 980,
      "çºª": 981,
      "ä¿¡": 982,
      "æľį": 983,
      "æ¯ı": 984,
      "é»ĳ": 985,
      "åĮħæĭ¬": 986,
      "æ¸ħ": 987,
      "æĶ¯": 988,
      "æĳ": 989,
      "ä¸»è¦ģ": 990,
      "14": 991,
      "17": 992,
      "äº¦": 993,
      "åĽ½å®¶": 994,
      "è¾ĥ": 995,
      "åķĨ": 996,
      "åİ»": 997,
      "ç¥ŀ": 998,
      "åĳ¨": 999,
      "çŁ¥": 1000,
      "åħ·": 1001,
      "èĥĨ": 1002,
      "çłĶ": 1003,
      "ä¸ĸçķĮ": 1004,
      "åĻ¨": 1005,
      "æł¹": 1006,
      "æŃ¦": 1007,
      "198": 1008,
      "2009": 1009,
      "èµĦ": 1010,
      "å¤«": 1011,
      "å¼º": 1012,
      "è®º": 1013,
      "åĽĽå·Ŀ": 1014,
      "å®Į": 1015,
      "å®¢": 1016,
      "æłĩ": 1017,
      "æĥħ": 1018,
      "çĮ": 1019,
      "åľŁ": 1020,
      "è¿Ľè¡Į": 1021,
      "æĿİ": 1022,
      "å¾Ī": 1023,
      "è¶ħ": 1024,
      "æľ±": 1025,
      "æ¬§": 1026,
      "æ³¢": 1027,
      "è´¨": 1028,
      "ç¦»": 1029,
      "en": 1030,
      "èĤ²": 1031,
      "ar": 1032,
      "é¾ĻèĥĨ": 1033,
      "000": 1034,
      "é¦Ļæ¸¯": 1035,
      "å±Ģ": 1036,
      "ç½ĳ": 1037,
      "è¶Ĭ": 1038,
      "ä¸ĢèĪ¬": 1039,
      "åĪĽ": 1040,
      "æ²¡æľī": 1041,
      "çĶ±äºİ": 1042,
      "ä¿®": 1043,
      "åħµ": 1044,
      "æĶ¶": 1045,
      "ä»ĸä»¬": 1046,
      "åĪĿ": 1047,
      "å±±åĿ¡": 1048,
      "å®¹": 1049,
      "çº³": 1050,
      "æĶ¾": 1051,
      "è§Ĥ": 1052,
      "åĬŁ": 1053,
      "èħ": 1054,
      "è®°": 1055,
      "éĺ³": 1056,
      "ç¬¬äºĮ": 1057,
      "æĻ®": 1058,
      "é¢ĺ": 1059,
      "åĽ½éĻħ": 1060,
      "å¤į": 1061,
      "ãĤ": 1062,
      "ä»Ĭ": 1063,
      "éĥ¨åĪĨ": 1064,
      "æĪı": 1065,
      "å¥¥": 1066,
      "æĹı": 1067,
      "å°¾": 1068,
      "å±ħ": 1069,
      "åľ£": 1070,
      "æĿĥ": 1071,
      "çĬ¶": 1072,
      "é¸": 1073,
      "æŃ»": 1074,
      "ä¾Ľ": 1075,
      "åĨ¬éĿĴ": 1076,
      "è®¸": 1077,
      "åĬŀ": 1078,
      "å¡ŀ": 1079,
      "çĵ": 1080,
      "åı¦": 1081,
      "èĲ¥": 1082,
      "åħ¶ä¸Ń": 1083,
      "äººæ°ĳ": 1084,
      "åħ«": 1085,
      "æŀĦ": 1086,
      "åĪĴ": 1087,
      "æ¥": 1088,
      "è§Ħ": 1089,
      "50": 1090,
      "ç»Ń": 1091,
      "éĹ®": 1092,
      "å§Ķåĳĺ": 1093,
      "èĢģ": 1094,
      "çģ«": 1095,
      "åĦ": 1096,
      "å¥½": 1097,
      "éļı": 1098,
      "al": 1099,
      "çĪ±": 1100,
      "åıĮ": 1101,
      "åħŃ": 1102,
      "åįı": 1103,
      "æ´¾": 1104,
      "æ®µ": 1105,
      "éĻ¤": 1106,
      "æłĳ": 1107,
      "çĶ°": 1108,
      "ç»Ļ": 1109,
      "ä¼¯": 1110,
      "æ°ı": 1111,
      "ç©¶": 1112,
      "åĥ": 1113,
      "æļ": 1114,
      "æĬ¤": 1115,
      "é£ŀ": 1116,
      "è¨": 1117,
      "æķħ": 1118,
      "çĶ»": 1119,
      "å¥¹": 1120,
      "çĳ": 1121,
      "ä¼Ĭ": 1122,
      "æ¾": 1123,
      "åħ¶ä»ĸ": 1124,
      "åĵĪ": 1125,
      "åŃĺ": 1126,
      "äºī": 1127,
      "éĩİ": 1128,
      "è¨Ģ": 1129,
      "éĢŁ": 1130,
      "åį«": 1131,
      "ç¢": 1132,
      "å¯Ĩ": 1133,
      "å°Ħ": 1134,
      "æºĲ": 1135,
      "å¸Ŀ": 1136,
      "è±Ĩ": 1137,
      "çłĶç©¶": 1138,
      "ç½®": 1139,
      "é¡¹": 1140,
      "è°ĥ": 1141,
      "äº²": 1142,
      "ä¹¡": 1143,
      "åĶ±": 1144,
      "æħ": 1145,
      "åĨł": 1146,
      "ä»¤": 1147,
      "åº§": 1148,
      "æĺ¯ä¸Ģ": 1149,
      "åĬ¨çī©": 1150,
      "çĶŁéķ¿åľ¨": 1151,
      "å¤±": 1152,
      "å¸Į": 1153,
      "æĶ»": 1154,
      "èİ·å¾Ĺ": 1155,
      "ï¼īãĢģ": 1156,
      "é¼": 1157,
      "åĬ©": 1158,
      "é£Ł": 1159,
      "å®£": 1160,
      "å¿Ĺ": 1161,
      "å±Ĥ": 1162,
      "å®ģ": 1163,
      "åħ´": 1164,
      "åĽłä¸º": 1165,
      "ä¸¹": 1166,
      "éĻĲ": 1167,
      "æĴŃ": 1168,
      "ic": 1169,
      "ç»Ī": 1170,
      "åĽŃ": 1171,
      "ç¼ĸ": 1172,
      "è®¤ä¸º": 1173,
      "çĶ²": 1174,
      "åĦ¿": 1175,
      "æŀª": 1176,
      "ä»£è¡¨": 1177,
      "å½ķ": 1178,
      "åĽłæŃ¤": 1179,
      "é±": 1180,
      "æ¡Ī": 1181,
      "Ġ(": 1182,
      "åĩĨ": 1183,
      "é±¼": 1184,
      "æİ¨": 1185,
      "èĲ¨": 1186,
      "æŃ¥": 1187,
      "å¤ĩ": 1188,
      "çİ¯": 1189,
      "è´µ": 1190,
      "æķ´": 1191,
      "30": 1192,
      "æł·": 1193,
      "åĵ¥": 1194,
      "å·±": 1195,
      "æĿ¾": 1196,
      "æİĴ": 1197,
      "çĽŁ": 1198,
      "ç»Ĩ": 1199,
      "åĩł": 1200,
      "èĲ½": 1201,
      "çª": 1202,
      "at": 1203,
      "æīį": 1204,
      "çľŁ": 1205,
      "èĮĥ": 1206,
      "é¥": 1207,
      "æ¯į": 1208,
      "é«ĺéĽĦ": 1209,
      "æŀĹä¸Ń": 1210,
      "çĻ¾": 1211,
      "ä¸ĥ": 1212,
      "ä¼Ĺ": 1213,
      "éĩĩ": 1214,
      "åĲĮæĹ¶": 1215,
      "ä¸ŃçļĦ": 1216,
      "æľºè½¦": 1217,
      "ç»ĩ": 1218,
      "æ±ī": 1219,
      "éľĢ": 1220,
      "ç»§": 1221,
      "æ±Ĥ": 1222,
      "ä»½": 1223,
      "es": 1224,
      "é¡¿": 1225,
      "è®¾è®¡": 1226,
      "å±Ĭ": 1227,
      "ç¾¤": 1228,
      "å®Ĺ": 1229,
      "åįł": 1230,
      "ç´ł": 1231,
      "éº": 1232,
      "çĶµå½±": 1233,
      "éĽ·": 1234,
      "é²ģ": 1235,
      "èĿ": 1236,
      "åįĬ": 1237,
      "åŁŁ": 1238,
      "è¾ĳ": 1239,
      "åĳĬ": 1240,
      "ç§¯": 1241,
      "ä¿Ħ": 1242,
      "æĭħ": 1243,
      "èĩ´": 1244,
      "ä¹ĭåĲİ": 1245,
      "¹èĽĽ": 1246,
      "æĪĳ": 1247,
      "æĿĢ": 1248,
      "å½ĵæĹ¶": 1249,
      "é²ľ": 1250,
      "å¡Ķ": 1251,
      "åĿĩ": 1252,
      "å¸Ń": 1253,
      "çİĩ": 1254,
      "ä¾ĭ": 1255,
      "èīº": 1256,
      "åį°åº¦": 1257,
      "ä½ľä¸º": 1258,
      "is": 1259,
      "ä¹ĭä¸Ģ": 1260,
      "é³": 1261,
      "é¹": 1262,
      "ä¸Ľ": 1263,
      "å¤®": 1264,
      "æĹ©": 1265,
      "æ¦": 1266,
      "çĻ»": 1267,
      "çĹħ": 1268,
      "åįĩ": 1269,
      "æµİ": 1270,
      "æľºåľº": 1271,
      "æĺĵ": 1272,
      "çĪ¶": 1273,
      "æµĭ": 1274,
      "å²ģ": 1275,
      "ä¹Ŀ": 1276,
      "è¯į": 1277,
      "å¼¹": 1278,
      "è¯ķ": 1279,
      "å¥ĩ": 1280,
      "éĤ£": 1281,
      "ä¼¦": 1282,
      "è°·": 1283,
      "éħį": 1284,
      "èĴĻ": 1285,
      "æĸĻ": 1286,
      "æ·±": 1287,
      "æ¾³": 1288,
      "ä½Ľ": 1289,
      "æĺ¯ä¸ŃåĽ½çļĦçī¹æľīæ¤įçī©": 1290,
      "ä¸įåĲĮ": 1291,
      "çĥŃ": 1292,
      "æĤ": 1293,
      "æŀģ": 1294,
      "é¦Ĩ": 1295,
      "æ¨¡": 1296,
      "è¥¿èĹı": 1297,
      "æ´ĭ": 1298,
      "éŁ³ä¹Ĳ": 1299,
      "å¢ŀ": 1300,
      "æķĪ": 1301,
      "å´": 1302,
      "ĠS": 1303,
      "å¨ģ": 1304,
      "è¯Ħ": 1305,
      "èĩªå·±": 1306,
      "æĹ¶éĹ´": 1307,
      "èŁ": 1308,
      "ä»į": 1309,
      "åĪĨå¸ĥäºİä¸ŃåĽ½å¤§éĻĨçļĦ": 1310,
      "500": 1311,
      "çĭ¬": 1312,
      "æĺ¾": 1313,
      "éĺ²": 1314,
      "çıŃ": 1315,
      "el": 1316,
      "ä»ħ": 1317,
      "æĬĢ": 1318,
      "æĬķ": 1319,
      "ä¸ºä¸ŃåĽ½çļĦçī¹æľīæ¤įçī©": 1320,
      "å³": 1321,
      "éŃ": 1322,
      "la": 1323,
      "è´¥": 1324,
      "194": 1325,
      "æ´Ľ": 1326,
      "é½": 1327,
      "åĩºçİ°": 1328,
      "åĽ´": 1329,
      "ä»ĸçļĦ": 1330,
      "éĵ¶": 1331,
      "è¾ĸ": 1332,
      "çķĻ": 1333,
      "çħ": 1334,
      "è½½": 1335,
      "èĪªç©º": 1336,
      "å±ŀçļĦ": 1337,
      "è¡Ĺ": 1338,
      "ä¸Ńå¤®": 1339,
      "çļĦä¸Ģä¸ª": 1340,
      "çĸĨ": 1341,
      "æ³°": 1342,
      "èĪ°": 1343,
      "åı¯èĥ½": 1344,
      "æģ©": 1345,
      "ä¸Ńåįİ": 1346,
      "éĢļè¿ĩ": 1347,
      "åĪĨå¸ĥåľ¨ä¸ŃåĽ½å¤§éĻĨçļĦ": 1348,
      "æ½": 1349,
      "ç»Ħç»ĩ": 1350,
      "è´¹": 1351,
      "ãĥ": 1352,
      "è¡ĮæĶ¿": 1353,
      "æ¸¸æĪı": 1354,
      "è¯ģ": 1355,
      "å¯º": 1356,
      "åĵį": 1357,
      "èŁ¹èĽĽ": 1358,
      "è¿ĲåĬ¨": 1359,
      "çļĩ": 1360,
      "ä½İ": 1361,
      "çĶ·": 1362,
      "åıĳçİ°": 1363,
      "2008": 1364,
      "ç§°ä¸º": 1365,
      "ç³»ç»Ł": 1366,
      "å¹²": 1367,
      "å¾ĭ": 1368,
      "èģĶèµĽ": 1369,
      "æĸĹ": 1370,
      "å¹¿è¥¿": 1371,
      "åįļ": 1372,
      "å¹¿ä¸ľ": 1373,
      "èĵ": 1374,
      "å·¥ä½ľ": 1375,
      "çļ®": 1376,
      "ãĢįï¼Į": 1377,
      "çĶµè§Ĩ": 1378,
      "ï¼Īï¼ī": 1379,
      "ä½Ĩæĺ¯": 1380,
      "æľĿé²ľ": 1381,
      "ä¸Ńå¿ĥ": 1382,
      "åĥı": 1383,
      "25": 1384,
      "è¯º": 1385,
      "æ¸©": 1386,
      "åıĳå±ķ": 1387,
      "197": 1388,
      "äºĳåįĹçŃīåľ°": 1389,
      "çľĭ": 1390,
      "ä¾¿": 1391,
      "æĦŁ": 1392,
      "æľĢåĲİ": 1393,
      "å®Ŀ": 1394,
      "æŁ¥": 1395,
      "ä½Ļ": 1396,
      "èĭ±åĽ½": 1397,
      "èĢĨ": 1398,
      "ä½ķ": 1399,
      "è¿ĻäºĽ": 1400,
      "196": 1401,
      "é¢Ħ": 1402,
      "âĢĿãĢĤ": 1403,
      "è¶³çĲĥ": 1404,
      "æīĺ": 1405,
      "åħ¬éĩĮ": 1406,
      "ä¾Ŀ": 1407,
      "æĸĩåĮĸ": 1408,
      "çĶĺ": 1409,
      "åį´": 1410,
      "éĻĦ": 1411,
      "æŃ¢": 1412,
      "å¢ĥ": 1413,
      "åħ¸": 1414,
      "åŃ¦æł¡": 1415,
      "è´Ŀ": 1416,
      "çŁŃ": 1417,
      "æĪ·": 1418,
      "éĻį": 1419,
      "çī©ç§į": 1420,
      "æ²¹": 1421,
      "çĩ": 1422,
      "è®©": 1423,
      "æŀ¶": 1424,
      "é»ĦèĢĨ": 1425,
      "è¿Ļä¸ª": 1426,
      "æ¡¥": 1427,
      "æ¯ĶèµĽ": 1428,
      "ä¸ĬçļĦ": 1429,
      "è±¡": 1430,
      "åĮ»": 1431,
      "æł¸": 1432,
      "è¿ľ": 1433,
      "åłĤ": 1434,
      "21": 1435,
      "ĠC": 1436,
      "éĻĪ": 1437,
      "ä¸ĵè¾ĳ": 1438,
      "æĻ¯": 1439,
      "ç¡®": 1440,
      "å§Ķåĳĺä¼ļ": 1441,
      "åįĥ": 1442,
      "æŃ£å¼ı": 1443,
      "å¤ı": 1444,
      "å®¤": 1445,
      "çŃĳ": 1446,
      "èĢĥ": 1447,
      "è½¦ç«Ļ": 1448,
      "it": 1449,
      "æ»¡": 1450,
      "æĭħä»»": 1451,
      "æĸ½": 1452,
      "äººåı£": 1453,
      "æģ¯": 1454,
      "æ¹ĸåĮĹ": 1455,
      "ç²¾": 1456,
      "ä½ı": 1457,
      "åĭĴ": 1458,
      "åĢĻ": 1459,
      "å£°": 1460,
      "éŁ©": 1461,
      "æıĲä¾Ľ": 1462,
      "åĺ": 1463,
      "åĮĹäº¬": 1464,
      "å¯Ł": 1465,
      "æĽ¼": 1466,
      "å±ŀçļĦåĬ¨çī©": 1467,
      "èĥľ": 1468,
      "åıĳçĶŁ": 1469,
      "å¼Ĥ": 1470,
      "le": 1471,
      "åŃ¦éĻ¢": 1472,
      "åī¯": 1473,
      "èľ": 1474,
      "åĲ«": 1475,
      "éĵģè·¯": 1476,
      "åİĨåı²": 1477,
      "æ°¸": 1478,
      "çĨ": 1479,
      "ĠĊ": 1480,
      "éªĮ": 1481,
      "å¾ģ": 1482,
      "éĴŁ": 1483,
      "å°ģ": 1484,
      "ç®Ģ": 1485,
      "ç»¿": 1486,
      "ç¬¬ä¸ī": 1487,
      "æ£®": 1488,
      "çĿĢ": 1489,
      "æ¥¼": 1490,
      "ãĢįãĢĤ": 1491,
      "âĢĶ": 1492,
      "æĪĲç«ĭ": 1493,
      "åıĭ": 1494,
      "æİĪ": 1495,
      "æ¶Ī": 1496,
      "ç¤¾ä¼ļ": 1497,
      "éĹ®é¢ĺ": 1498,
      "åĪ©äºļ": 1499,
      "åľĨ": 1500,
      "å¹´çļĦ": 1501,
      "åºĨ": 1502,
      "çł´": 1503,
      "ç§»": 1504,
      "çģĮ": 1505,
      "æĬĬ": 1506,
      "ä¼¤": 1507,
      "ä¼¼": 1508,
      "195": 1509,
      "èŃ": 1510,
      "è½¯": 1511,
      "çļĦæ¨": 1512,
      "ï¼į": 1513,
      "å·²ç»ı": 1514,
      "åĨĻ": 1515,
      "å¿µ": 1516,
      "éĢĢ": 1517,
      "ä¾§": 1518,
      "èĥ¡": 1519,
      "åĲİæĿ¥": 1520,
      "æľįåĬ¡": 1521,
      "he": 1522,
      "ĠM": 1523,
      "ä¹ĭéĹ´": 1524,
      "çĲĥéĺŁ": 1525,
      "èŃ¦": 1526,
      "è®¡åĪĴ": 1527,
      "åĨłåĨĽ": 1528,
      "åģļ": 1529,
      "èĻ½": 1530,
      "è¡¨ç¤º": 1531,
      "æīĢæľī": 1532,
      "ä¸ĢäºĽ": 1533,
      "å¾®": 1534,
      "ä¸ĸçºª": 1535,
      "ä¹ħ": 1536,
      "åºķ": 1537,
      "è·³": 1538,
      "æľĽ": 1539,
      "èĪ¹": 1540,
      "çļĦæ¨¡": 1541,
      "åıĤåĬł": 1542,
      "åº·": 1543,
      "æ¬§æ´²": 1544,
      "ĠA": 1545,
      "è´Ł": 1546,
      "ä¹Į": 1547,
      "åħ±åĴĮ": 1548,
      "åºŃ": 1549,
      "æ¡ĥ": 1550,
      "çłģ": 1551,
      "ä»·": 1552,
      "éĿ©": 1553,
      "2007": 1554,
      "ç½Ĺæĸ¯": 1555,
      "ç»ıæµİ": 1556,
      "çıł": 1557,
      "æĲ": 1558,
      "åİĤ": 1559,
      "å½¹": 1560,
      "å¿«": 1561,
      "åĿ¦": 1562,
      "æī¹": 1563,
      "æĢģ": 1564,
      "ç¤¼": 1565,
      "çªģ": 1566,
      "for": 1567,
      "æľŁéĹ´": 1568,
      "å½±åĵį": 1569,
      "ro": 1570,
      "âĢĿï¼Į": 1571,
      "ç®Ĺ": 1572,
      "ä¸¤ä¸ª": 1573,
      "åĪĺ": 1574,
      "çīł": 1575,
      "å¤§çļĦ": 1576,
      "ç¥¨": 1577,
      "ç¼ĺ": 1578,
      "ãĢĭï¼Į": 1579,
      "æĺ¥": 1580,
      "èĥ¶": 1581,
      "å¹¶ä¸Ķ": 1582,
      "ĊĊĊĊ": 1583,
      "æī§": 1584,
      "å¯Į": 1585,
      "å©": 1586,
      "åł¡": 1587,
      "è¿ª": 1588,
      "èį¯": 1589,
      "ï¼Īï¼īï¼Į": 1590,
      "è¯Ŀ": 1591,
      "ä¹Łæĺ¯": 1592,
      "èİ±": 1593,
      "é¼ł": 1594,
      "åħ¨åĽ½": 1595,
      "èıľ": 1596,
      "åºı": 1597,
      "å°¼äºļ": 1598,
      "çģ¯": 1599,
      "100": 1600,
      "æĹħ": 1601,
      "æ°ĳåĽ½": 1602,
      "åŁĥ": 1603,
      "ĠP": 1604,
      "å¹´ä»£": 1605,
      "ä¹ĺ": 1606,
      "åľ°æĸ¹": 1607,
      "èĸ": 1608,
      "æī¿": 1609,
      "çļĦæ¨¡å¼ı": 1610,
      "æĿŁ": 1611,
      "ä¸Ĭæµ·": 1612,
      "èı²": 1613,
      "èĴĻåı¤": 1614,
      "åħ±åĴĮåĽ½": 1615,
      "æĪ¿": 1616,
      "æĿĤ": 1617,
      "å²©": 1618,
      "æĸ°çĸĨ": 1619,
      "å»ºçŃĳ": 1620,
      "ç³»åĪĹ": 1621,
      "çĵ¦": 1622,
      "24": 1623,
      "çĳŀ": 1624,
      "çĶ¸": 1625,
      "28": 1626,
      "å¼Ł": 1627,
      "è´£": 1628,
      "ç´¢": 1629,
      "åĨľ": 1630,
      "åĪ°äºĨ": 1631,
      "23": 1632,
      "æĭ¿": 1633,
      "èįīåľ°": 1634,
      "æİ§": 1635,
      "ç¿ł": 1636,
      "æ¤": 1637,
      "ä½³": 1638,
      "ç»ĥ": 1639,
      "æºª": 1640,
      "æĵ": 1641,
      "ä¸´": 1642,
      "äº§åľ°": 1643,
      "æį¢": 1644,
      "åıįåºĶ": 1645,
      "åĪĨåĪ«": 1646,
      "è®¸å¤ļ": 1647,
      "éĨ": 1648,
      "æĸŃ": 1649,
      "èĥĮ": 1650,
      "åĬ¿": 1651,
      "æĿ°": 1652,
      "æĶ¿æ²»": 1653,
      "æ³ķåĽ½": 1654,
      "è¶ĬåįĹ": 1655,
      "æµĻ": 1656,
      "å»¶": 1657,
      "éľĢè¦ģ": 1658,
      "é»İ": 1659,
      "ç¦ıå»º": 1660,
      "åŁİå¸Ĥ": 1661,
      "å®Ī": 1662,
      "åĨ²": 1663,
      "è¯·": 1664,
      "æĸ¹éĿ¢": 1665,
      "åįķä½į": 1666,
      "çīĽ": 1667,
      "éĺµ": 1668,
      "æĥ³": 1669,
      "æ¢ħ": 1670,
      "è´µå·ŀ": 1671,
      "èĤĥ": 1672,
      "ç¥ĸ": 1673,
      "è¿Ķ": 1674,
      "åĢ¼": 1675,
      "åģľ": 1676,
      "èĬĤçĽ®": 1677,
      "çīłä»¬": 1678,
      "26": 1679,
      "åĬ³": 1680,
      "ä½ľåĵģ": 1681,
      "è¯¥çī©ç§į": 1682,
      "il": 1683,
      "åºĵ": 1684,
      "èµ«": 1685,
      "å±±åľ°": 1686,
      "ä¸¾è¡Į": 1687,
      "çļĦæ¨¡å¼ıäº§åľ°": 1688,
      "è¯¥çī©ç§įçļĦæ¨¡å¼ıäº§åľ°": 1689,
      "æľĢé«ĺ": 1690,
      "è¯¥çī©ç§įçļĦæ¨¡å¼ıäº§åľ°åľ¨": 1691,
      "ç£": 1692,
      "ä¸ģ": 1693,
      "ä¹ł": 1694,
      "æľīä¸Ģ": 1695,
      "åĶ®": 1696,
      "æł¹æį®": 1697,
      "am": 1698,
      "èĶ": 1699,
      "ä¸¥": 1700,
      "æĬĹ": 1701,
      "éļ¾": 1702,
      "ç®¡çĲĨ": 1703,
      "è±Ĩç§ĳ": 1704,
      "æµĻæ±Ł": 1705,
      "æĿ¨": 1706,
      "è¿Ľåħ¥": 1707,
      "å·¦": 1708,
      "åĪ¶ä½ľ": 1709,
      "ä¿Ħç½Ĺæĸ¯": 1710,
      "ä¸½": 1711,
      "è¿°": 1712,
      "è½»": 1713,
      "ç«ł": 1714,
      "å²¸": 1715,
      "äº¡": 1716,
      "å·¨": 1717,
      "æ³¨": 1718,
      "ãĢģãĢĬ": 1719,
      "çīĻ": 1720,
      "è¥¿äºļ": 1721,
      "éĩĩçĶ¨": 1722,
      "2006": 1723,
      "çħ§": 1724,
      "èĵĿ": 1725,
      "re": 1726,
      "åĨµ": 1727,
      "èµ°": 1728,
      "åıĳè¡Į": 1729,
      "800": 1730,
      "çīĮ": 1731,
      "æľīéĻĲ": 1732,
      "æĹ¶æľŁ": 1733,
      "2010": 1734,
      "æĻº": 1735,
      "çĽ®åīįå·²": 1736,
      "ion": 1737,
      "éĽĢ": 1738,
      "å¾·åĽ½": 1739,
      "éº¦": 1740,
      "mu": 1741,
      "çļĦå¤§": 1742,
      "ç«¯": 1743,
      "æľĢç»Ī": 1744,
      "çĶŁäº§": 1745,
      "è¢Ń": 1746,
      "å¿ħ": 1747,
      "èĻ½çĦ¶": 1748,
      "ä¸ºäºĨ": 1749,
      "åĳĪ": 1750,
      "æĪĲåĬŁ": 1751,
      "å¼Ģåıĳ": 1752,
      "å®ĮæĪĲ": 1753,
      "æĭľ": 1754,
      "è½®": 1755,
      "é¡¶": 1756,
      "éĤ¦": 1757,
      "éĩįè¦ģ": 1758,
      "å³°": 1759,
      "ĠB": 1760,
      "èī¯": 1761,
      "åİĭ": 1762,
      "é³į": 1763,
      "è®Ń": 1764,
      "22": 1765,
      "åĲ´": 1766,
      "éĿ¢ç§¯": 1767,
      "åŃ¦çĶŁ": 1768,
      "æĳ©": 1769,
      "å½Ĵ": 1770,
      "èĪŀ": 1771,
      "å¹³æĸ¹": 1772,
      "åĲįä¸º": 1773,
      "æĪĲåĳĺ": 1774,
      "æ¯ķ": 1775,
      "æĹģ": 1776,
      "éģŃ": 1777,
      "èĴĤ": 1778,
      "åĸľ": 1779,
      "40": 1780,
      "æĿ¯": 1781,
      "æĭ¥": 1782,
      "è¾ĵ": 1783,
      "æĻļ": 1784,
      "åıĹåĪ°": 1785,
      "é¢Ĩå¯¼": 1786,
      "è¯Ĩ": 1787,
      "éĥ¡": 1788,
      "æĢĿ": 1789,
      "çĿ£": 1790,
      "ow": 1791,
      "ä¸įè¿ĩ": 1792,
      "åı¦å¤ĸ": 1793,
      "et": 1794,
      "ä»ª": 1795,
      "300": 1796,
      "åĲ¯": 1797,
      "è°¢": 1798,
      "åĨ³å®ļ": 1799,
      "çĶ¨äºİ": 1800,
      "zh": 1801,
      "ä¼ļè®®": 1802,
      "ä½ĵèĤ²": 1803,
      "åħį": 1804,
      "äººçļĦ": 1805,
      "ãĢĭï¼Ī": 1806,
      "æķĻèĤ²": 1807,
      "çĽ®åīįå·²çĶ±äººå·¥å¼ķç§įæł½åŁ¹": 1808,
      "ĠL": 1809,
      "éĽħ": 1810,
      "ĠT": 1811,
      "å·´å£«": 1812,
      "æ´»åĬ¨": 1813,
      "åĪĩ": 1814,
      "çĶĺèĤĥ": 1815,
      "åħ³ç³»": 1816,
      "ä¼ĺ": 1817,
      "è¿½": 1818,
      "éĢģ": 1819,
      "ç»ĦæĪĲ": 1820,
      "éħ¸": 1821,
      "è¯»": 1822,
      "ä»¥ä¸ĭ": 1823,
      "éĹ»": 1824,
      "æĹ§": 1825,
      "é¡»": 1826,
      "ch": 1827,
      "åı³": 1828,
      "æĺ¯åľ¨": 1829,
      "åŃ¦å®¶": 1830,
      "çĶŁæ´»": 1831,
      "æ³½": 1832,
      "ãĢĭãĢģãĢĬ": 1833,
      "æĪĺäºī": 1834,
      "éĢīä¸¾": 1835,
      "29": 1836,
      "us": 1837,
      "èģĶåĲĪ": 1838,
      "å®ĥä»¬": 1839,
      "600": 1840,
      "çļĦäºº": 1841,
      "åĬłåħ¥": 1842,
      "ä¿ĿæĬ¤": 1843,
      "27": 1844,
      "æľ«": 1845,
      "èĹ¤": 1846,
      "å®ĭ": 1847,
      "åİħ": 1848,
      "æ¹¿": 1849,
      "åģĩ": 1850,
      "çıį": 1851,
      "éĢĲ": 1852,
      "åĲĮå¹´": 1853,
      "åŃĺåľ¨": 1854,
      "çİī": 1855,
      "åĶĲ": 1856,
      "æĿ¥èĩª": 1857,
      "è½¨": 1858,
      "é¾Ł": 1859,
      "è·³èĽĽ": 1860,
      "ç»Ŀ": 1861,
      "of": 1862,
      "æ©": 1863,
      "åīįå¾Ģ": 1864,
      "å§Ĩ": 1865,
      "é¡º": 1866,
      "åħ·æľī": 1867,
      "as": 1868,
      "èŀ": 1869,
      "éĻµ": 1870,
      "äºĭä»¶": 1871,
      "éĢļå¸¸": 1872,
      "åıªæľī": 1873,
      "åĪ¤": 1874,
      "åħĭæĸ¯": 1875,
      "å°±æĺ¯": 1876,
      "åīĤ": 1877,
      "å¹¶åľ¨": 1878,
      "æŁ¯": 1879,
      "éĶĢ": 1880,
      "ç¯": 1881,
      "çļĦæĺ¯": 1882,
      "id": 1883,
      "å®«": 1884,
      "åı°åįĹ": 1885,
      "çģŃ": 1886,
      "æĬĢæľ¯": 1887,
      "Ġt": 1888,
      "æĿī": 1889,
      "æķ£": 1890,
      "å¯¹äºİ": 1891,
      "åĽĽå·ĿçŃīåľ°": 1892,
      "è¡Ģ": 1893,
      "çŃ¾": 1894,
      "æĶ¯æĮģ": 1895,
      "å¾ĹåĪ°": 1896,
      "è¦ģæ±Ĥ": 1897,
      "æĸĳ": 1898,
      "éĻķ": 1899,
      "ä¸ľåĮĹ": 1900,
      "æĿĲ": 1901,
      "æĶ»åĩ»": 1902,
      "å·¥ä¸ļ": 1903,
      "éģĹ": 1904,
      "è¿Ļç§į": 1905,
      "formu": 1906,
      "formula": 1907,
      "om": 1908,
      "å±ŀäºİ": 1909,
      "åıĤä¸İ": 1910,
      "åħ¼": 1911,
      "æ¬¾": 1912,
      "çķ¥": 1913,
      "è§ģäºİ": 1914,
      "åħ»": 1915,
      "ç»ĵæĿŁ": 1916,
      "ing": 1917,
      "60": 1918,
      "æĹĹ": 1919,
      "æ¸Ĳ": 1920,
      "éªĳ": 1921,
      "ç¿łéĽĢ": 1922,
      "å®½": 1923,
      "èį£": 1924,
      "æīĢä»¥": 1925,
      "è¯Ńè¨Ģ": 1926,
      "çģĮä¸Ľ": 1927,
      "å°º": 1928,
      "èĩ£": 1929,
      "å»ºç«ĭ": 1930,
      "èĳĹåĲį": 1931,
      "åĤ": 1932,
      "éĢĶ": 1933,
      "æŀĹä¸ĭ": 1934,
      "è¡£": 1935,
      "èī¾": 1936,
      "å½¢æĪĲ": 1937,
      "æł¼åħ°": 1938,
      "å®¾": 1939,
      "193": 1940,
      "åĩı": 1941,
      "éĺ¶": 1942,
      "çģµ": 1943,
      "é½Ĳ": 1944,
      "400": 1945,
      "un": 1946,
      "ur": 1947,
      "çĪĨ": 1948,
      "äºĨä¸Ģ": 1949,
      "å¤º": 1950,
      "å®³": 1951,
      "ä»ĸåľ¨": 1952,
      "2000": 1953,
      "åĸĦ": 1954,
      "åĪļ": 1955,
      "æ··": 1956,
      "å®£å¸ĥ": 1957,
      "çĶļ": 1958,
      "åŃĻ": 1959,
      "æĺ¯ä¸Ģä¸ª": 1960,
      "éĢı": 1961,
      "2005": 1962,
      "2011": 1963,
      "åĺī": 1964,
      "åĽ½æ°ĳ": 1965,
      "éĢĤ": 1966,
      "ç±į": 1967,
      "æ¯«": 1968,
      "èİ²": 1969,
      "ä¾ĭå¦Ĥ": 1970,
      "éĺģ": 1971,
      "æ²Ł": 1972,
      "è´Ń": 1973,
      "æ¬¢": 1974,
      "æľīéĻĲåħ¬åı¸": 1975,
      "åĲ¸": 1976,
      "ï¼Īï¼Į": 1977,
      "æ¹ĸåįĹ": 1978,
      "åĲĽ": 1979,
      "çĥĪ": 1980,
      "äºĴ": 1981,
      "æĺ¯çĶ±": 1982,
      "èĤ¡": 1983,
      "èĤī": 1984,
      "çĸı": 1985,
      "è®¿": 1986,
      "ä¸»å¸Ń": 1987,
      "é«ĺéĽĦå¸Ĥ": 1988,
      "ç§Ģ": 1989,
      "éļĨ": 1990,
      "éĻķè¥¿": 1991,
      "ç§ĺ": 1992,
      "è¡¥": 1993,
      "èĦī": 1994,
      "åĩºçīĪ": 1995,
      "è¿ĺæľī": 1996,
      "é½¿": 1997,
      "åľ°çĲĥ": 1998,
      "æŀĿ": 1999,
      "æ¯Ĵ": 2000,
      "è·¯çº¿": 2001,
      "å·¥ç¨ĭ": 2002,
      "æĸ¹å¼ı": 2003,
      "æ¿": 2004,
      "ä»ĭ": 2005,
      "è¯ĳ": 2006,
      "çĽĳ": 2007,
      "èĥŀ": 2008,
      "çĦ¶èĢĮ": 2009,
      "æ¯ķä¸ļ": 2010,
      "ĠH": 2011,
      "èĩªçĶ±": 2012,
      "çĹĩ": 2013,
      "å«": 2014,
      "æ´¥": 2015,
      "çī¹åĪ«": 2016,
      "åĪº": 2017,
      "ä¹Ļ": 2018,
      "çİĽ": 2019,
      "åİĺ": 2020,
      "æµ·åįĹ": 2021,
      "æ¡ĳ": 2022,
      "ç»§ç»Ń": 2023,
      "ol": 2024,
      "çĽĸ": 2025,
      "çĶŁåľ¨": 2026,
      "æķĮ": 2027,
      "æ¯ģ": 2028,
      "çŁ¿": 2029,
      "åºĹ": 2030,
      "ãĢĭãĢĤ": 2031,
      "éĻ¤äºĨ": 2032,
      "è¾½": 2033,
      "é©»": 2034,
      "çģ°": 2035,
      "å½ĵåľ°": 2036,
      "èģĶçĽŁ": 2037,
      "æıĲåĩº": 2038,
      "æĹłæ³ķ": 2039,
      "ç»ĵæŀľ": 2040,
      "æħķ": 2041,
      "æľĹ": 2042,
      "æĺł": 2043,
      "æĹ¶ä»£": 2044,
      "éĢłæĪĲ": 2045,
      "-{": 2046,
      "}-": 2047,
      "æĬµ": 2048,
      "ç½²": 2049,
      "éĶ¡": 2050,
      "æĭ¥æľī": 2051,
      "ç½ª": 2052,
      "è·Ŀ": 2053,
      "äºļæ´²": 2054,
      "2004": 2055,
      "æĻĭ": 2056,
      "äºĮåįģ": 2057,
      "äº§çĶŁ": 2058,
      "æĳĦ": 2059,
      "åª": 2060,
      "æŃĮæĽ²": 2061,
      "é¥°": 2062,
      "éŃı": 2063,
      "å¾Ħ": 2064,
      "ç¾½": 2065,
      "çĸĹ": 2066,
      "çĭ¬ç«ĭ": 2067,
      "iv": 2068,
      "ĠR": 2069,
      "èİ«": 2070,
      "æļ´": 2071,
      "çİ©": 2072,
      "èĽĽå±ŀçļĦåĬ¨çī©": 2073,
      "å¦Ĥæŀľ": 2074,
      "700": 2075,
      "å®¡": 2076,
      "æĿ¿": 2077,
      "åıĸå¾Ĺ": 2078,
      "äººæ°ĳåħ±åĴĮåĽ½": 2079,
      "éĻĦè¿ĳ": 2080,
      "ĠD": 2081,
      "æĭį": 2082,
      "æĿ¥çļĦ": 2083,
      "åĪĹè½¦": 2084,
      "æ¦ķ": 2085,
      "èķ": 2086,
      "äºĪ": 2087,
      "ä¸ĢçĽ´": 2088,
      "è¯Ĺ": 2089,
      "æ²¿": 2090,
      "é¢ĳ": 2091,
      "è¿ģ": 2092,
      "ç§ĳåŃ¦": 2093,
      "ä¸ĭè¾ĸ": 2094,
      "é£ŀæľº": 2095,
      "æĽ¿": 2096,
      "é¦ĸæ¬¡": 2097,
      "è¥¿èĹıçŃīåľ°": 2098,
      "åį·": 2099,
      "åŃ¦èĮĥ": 2100,
      "éĥ¨éĺŁ": 2101,
      "éĴĪ": 2102,
      "è¶ħè¿ĩ": 2103,
      "çĸ«": 2104,
      "èĦ±": 2105,
      "æľ±åŃ¦èĮĥ": 2106,
      "å©ļ": 2107,
      "äº¿": 2108,
      "æī©": 2109,
      "èĢ¶": 2110,
      "èĬª": 2111,
      "æı´": 2112,
      "èµµ": 2113,
      "åįĹéĥ¨": 2114,
      "æĸ¯çī¹": 2115,
      "é»ĦèĬª": 2116,
      "ä¼ģ": 2117,
      "éĶ¦": 2118,
      "ac": 2119,
      "åĽº": 2120,
      "å°½": 2121,
      "æĪĺæĸĹ": 2122,
      "ç»ĵæŀĦ": 2123,
      "çĬ¯": 2124,
      "å¯¼èĩ´": 2125,
      "æ³Ĭ": 2126,
      "èį·": 2127,
      "èīºæľ¯": 2128,
      "çĩķ": 2129,
      "å·®": 2130,
      "æłĸ": 2131,
      "éĺĶ": 2132,
      "å²Ń": 2133,
      "æ®¿": 2134,
      "èĻİ": 2135,
      "éĽĨåĽ¢": 2136,
      "ä¹İ": 2137,
      "å®¶åºŃ": 2138,
      "æ¼ĶåĶ±": 2139,
      "ç¡¬": 2140,
      "å¤Ł": 2141,
      "ä¸Ģç§į": 2142,
      "è¿ĩç¨ĭ": 2143,
      "çİ°åľ¨": 2144,
      "æŁĲ": 2145,
      "æĢ»ç»Ł": 2146,
      "çĪ¶äº²": 2147,
      "éģĩ": 2148,
      "æĺĮ": 2149,
      "è¯¸": 2150,
      "è®¯": 2151,
      "èĢ³": 2152,
      "è§ī": 2153,
      "æľĢä½³": 2154,
      "æĮ¥": 2155,
      "éĩįæĸ°": 2156,
      "80": 2157,
      "åºĦ": 2158,
      "æŀļ": 2159,
      "ç¬¬åĽĽ": 2160,
      "èµ¢": 2161,
      "ç¬¦": 2162,
      "ä¾µ": 2163,
      "æŁ±": 2164,
      "å½¢å¼ı": 2165,
      "æ±Łè¥¿": 2166,
      "ä¹ĲåĽ¢": 2167,
      "åĮħåĲ«": 2168,
      "å¢ŀåĬł": 2169,
      "ä¸°": 2170,
      "å¤ľ": 2171,
      "æĹĭ": 2172,
      "éĥİ": 2173,
      "åģ¥": 2174,
      "éĿŀå¸¸": 2175,
      "ç»Ĩèĥŀ": 2176,
      "è±Ĩç§ĳé»ĦèĬª": 2177,
      "ä¸ĺ": 2178,
      "ä¸»ä¹ī": 2179,
      "éŁ¦": 2180,
      "å¸¸çĶŁäºİ": 2181,
      "åĩ¯": 2182,
      "å¸¸çĶŁéķ¿åľ¨": 2183,
      "æĸ°çĸĨçŃīåľ°": 2184,
      "çŃĸ": 2185,
      "2003": 2186,
      "è¿Ļä¸Ģ": 2187,
      "åı·çº¿": 2188,
      "æ£Ģ": 2189,
      "ä¼łç»Ł": 2190,
      "åªĴ": 2191,
      "¡èĥ¶": 2192,
      "åĪ»": 2193,
      "çĽĺ": 2194,
      "æ±Ĺ": 2195,
      "ç»ıè¿ĩ": 2196,
      "åĢŁ": 2197,
      "and": 2198,
      "ä¸ĢèĪ¬çĶŁéķ¿åľ¨": 2199,
      "è±Ĩç§ĳé»ĦèĬªå±ŀçļĦæ¤įçī©": 2200,
      "æŃ¤å¤ĸ": 2201,
      "ä»»ä½ķ": 2202,
      "æŁĵ": 2203,
      "åİĺç±³": 2204,
      "å¾Ĵ": 2205,
      "åĮºåŁŁ": 2206,
      "åĨĽäºĭ": 2207,
      "æį·": 2208,
      "èĭ±æł¼åħ°": 2209,
      "å¢ĵ": 2210,
      "åĬŁèĥ½": 2211,
      "åįıä¼ļ": 2212,
      "ĠI": 2213,
      "åľ¨ä¸ŃåĽ½å¤§éĻĨ": 2214,
      "æķĳ": 2215,
      "èĭ¥": 2216,
      "æİ¨åĩº": 2217,
      "æ¾³éĹ¨": 2218,
      "è´Łè´£": 2219,
      "ä¼ĳ": 2220,
      "æİ¥åıĹ": 2221,
      "åĨįæ¬¡": 2222,
      "èĪ°éĺŁ": 2223,
      "å¤ªéĺ³": 2224,
      "å®Įåħ¨": 2225,
      "åĳ³": 2226,
      "å¤ļçĶŁäºİ": 2227,
      "ä½įç½®": 2228,
      "è£Ĥ": 2229,
      "¢å°¾": 2230,
      "å¸®": 2231,
      "éĻ©": 2232,
      "éĩĬ": 2233,
      "ä¹Łæľī": 2234,
      "ç¼ħ": 2235,
      "æĴ¤": 2236,
      "çīĪæľ¬": 2237,
      "å·¡": 2238,
      "ä¸ªäºº": 2239,
      "å¹¿å·ŀ": 2240,
      "é¸¢å°¾": 2241,
      "¤Ĳ": 2242,
      "ä¹Ķ": 2243,
      "éĢĥ": 2244,
      "éĽ¨": 2245,
      "ç¼º": 2246,
      "çĽ´åĪ°": 2247,
      "èĭıèģĶ": 2248,
      "å¸ĿåĽ½": 2249,
      "æİ§åĪ¶": 2250,
      "çıįçıł": 2251,
      "ä»Ģ": 2252,
      "å±ĭ": 2253,
      "å¾½": 2254,
      "éĿĻ": 2255,
      "ï¼ļâĢľ": 2256,
      "ç´«": 2257,
      "ag": 2258,
      "äººåĳĺ": 2259,
      "åħ¬å¼Ģ": 2260,
      "2012": 2261,
      "2013": 2262,
      "çľ¼": 2263,
      "æŁı": 2264,
      "è®²": 2265,
      "ç«¹": 2266,
      "å¤ļçĶŁåľ¨": 2267,
      "èµĽäºĭ": 2268,
      "å¿ĥèįī": 2269,
      "çģ¯å¿ĥèįī": 2270,
      "ç¹": 2271,
      "Ġof": 2272,
      "å¼Ĺ": 2273,
      "æĿľ": 2274,
      "çº½": 2275,
      "å¹¶ä¸į": 2276,
      "èģļ": 2277,
      "è°Ī": 2278,
      "æ£Ĵ": 2279,
      "ä¸Ńåįİäººæ°ĳåħ±åĴĮåĽ½": 2280,
      "ä¸ºè·³èĽĽ": 2281,
      "å»·": 2282,
      "åĪ©çĶ¨": 2283,
      "ä¸ºè·³èĽĽç§ĳ": 2284,
      "éĺ´": 2285,
      "çļĦæĥ": 2286,
      "å±±è°·": 2287,
      "ç©¿": 2288,
      "åĨ·": 2289,
      "éĻ¶": 2290,
      "è®¾æľī": 2291,
      "æĺ¾ç¤º": 2292,
      "éħĴ": 2293,
      "è¡Ĺéģĵ": 2294,
      ")ï¼Į": 2295,
      "ĠF": 2296,
      "åħħ": 2297,
      "çļĦæĬ": 2298,
      "ä¹ĭåīį": 2299,
      "st": 2300,
      "å®ĩ": 2301,
      "çĽĽ": 2302,
      "è¾Ĩ": 2303,
      "è´¢": 2304,
      "ç»ıèĲ¥": 2305,
      "æģ¶": 2306,
      "åĶ¯": 2307,
      "oo": 2308,
      "çĶŁçī©": 2309,
      "æĺ¯ä¸ŃåĽ½": 2310,
      "æľīåħ³": 2311,
      "åĩ¤": 2312,
      "æķ¦": 2313,
      "èĬ¬": 2314,
      "çĽ´æİ¥": 2315,
      "èĦĳ": 2316,
      "æ©¡èĥ¶": 2317,
      "ç¹ģ": 2318,
      "ed": 2319,
      "ãĢĤâĢĿ": 2320,
      "ç§¦": 2321,
      "è¯¾": 2322,
      "å¾ħ": 2323,
      "æī¾": 2324,
      "å¤ļçĶŁéķ¿åľ¨": 2325,
      "å¾Īå¤ļ": 2326,
      "é¾ĻèĥĨç§ĳ": 2327,
      "ĠW": 2328,
      "è®¨": 2329,
      "çĲī": 2330,
      "èĥ½åĬĽ": 2331,
      "è°ĭ": 2332,
      "åĢĴ": 2333,
      "éĺ¿æĭī": 2334,
      "èµ¢å¾Ĺ": 2335,
      "é¾ĻèĥĨç§ĳé¾ĻèĥĨ": 2336,
      "èª": 2337,
      "èļ": 2338,
      "Ġd": 2339,
      "å¤§ä¼ļ": 2340,
      "æĭ©": 2341,
      "2002": 2342,
      "æįŁ": 2343,
      "é¾ĻèĥĨç§ĳé¾ĻèĥĨå±ŀçļĦæ¤įçī©": 2344,
      "70": 2345,
      "å¹ķ": 2346,
      "è¯ī": 2347,
      "åŃ¦ä¹ł": 2348,
      "çĲ´": 2349,
      "è¡¨çİ°": 2350,
      "éĥ½æĺ¯": 2351,
      "æ¢ģ": 2352,
      "è§Ĵèī²": 2353,
      "çļĨ": 2354,
      "åİļ": 2355,
      "æµ·åĨĽ": 2356,
      "åıĳè¡¨": 2357,
      "æĸ¹æ³ķ": 2358,
      "èģĮä¸ļ": 2359,
      "èľĤ": 2360,
      "æĸ°çļĦ": 2361,
      "æ¡Ĥ": 2362,
      "å®ŀéªĮ": 2363,
      "æ¯«ç±³": 2364,
      "ir": 2365,
      "çļĦåľ°": 2366,
      "åĲįç§°": 2367,
      "éĽª": 2368,
      "æĮī": 2369,
      "æķĻæİĪ": 2370,
      "åŀĭæľºè½¦": 2371,
      "äº¤éĢļ": 2372,
      "ä¸¾åĬŀ": 2373,
      "æķħäºĭ": 2374,
      "è¿İ": 2375,
      "å¹´éĹ´": 2376,
      "ä¸ºä¸»": 2377,
      "æ±Łèĭı": 2378,
      "èĿ¶": 2379,
      "éĿł": 2380,
      "è¡ĮåĬ¨": 2381,
      "èĢĮä¸Ķ": 2382,
      "åĨĽéĺŁ": 2383,
      "å°ıæĹ¶": 2384,
      "èıĮ": 2385,
      "åĨ³èµĽ": 2386,
      "ç¦ģ": 2387,
      "ä»ĺ": 2388,
      "ç»į": 2389,
      "ç©Ĩ": 2390,
      "çĶµåŃĲ": 2391,
      "èĮĥåĽ´": 2392,
      "å¹¼": 2393,
      "èµ¤": 2394,
      "çĲĥåĳĺ": 2395,
      "åĨħçļĦ": 2396,
      "æłĸæģ¯": 2397,
      "åĪĬ": 2398,
      "ä¹Ī": 2399,
      "æ³Ľ": 2400,
      "åĬłçĽŁ": 2401,
      "ç±»ä¼¼": 2402,
      "ç¦»å¼Ģ": 2403,
      "èĨ": 2404,
      "ä½ł": 2405,
      "æĸĩåŃ¦": 2406,
      "çĽ¸åħ³": 2407,
      "æĺ¯ä¸Ģç§į": 2408,
      "31": 2409,
      "å¹´èĩ³": 2410,
      "å¤§éĩı": 2411,
      "æĭĽ": 2412,
      "éĥŃ": 2413,
      "æ»©": 2414,
      "è¸": 2415,
      "å¥Ī": 2416,
      "æ³ķéĻ¢": 2417,
      "å¤ªå¹³": 2418,
      "èĻ«": 2419,
      "æłĩåĩĨ": 2420,
      "åı¦ä¸Ģ": 2421,
      "ä¸ŃåŃ¦": 2422,
      "ç§ĭ": 2423,
      "äººçī©": 2424,
      "çº¹": 2425,
      "å¤ļçĶŁéķ¿äºİ": 2426,
      "é«ĺå±±": 2427,
      "æ°ĳä¸»": 2428,
      "èĴ²": 2429,
      "éŁ©åĽ½": 2430,
      "ad": 2431,
      "çļĦå°ı": 2432,
      "åħ¹": 2433,
      "å°¤": 2434,
      "ä¸Ģå¹´": 2435,
      "çļĦæĢ": 2436,
      "æ´ª": 2437,
      "è·Ł": 2438,
      "æľºæŀĦ": 2439,
      "çİ°ä»£": 2440,
      "æĪĺå½¹": 2441,
      "éĩĳæŃ£": 2442,
      "éĢīæĭ©": 2443,
      "æŃĮæīĭ": 2444,
      "çĮ®": 2445,
      "ä¸ĢèĪ¬çĶŁäºİ": 2446,
      "å¿ħé¡»": 2447,
      "äº®": 2448,
      "ä»Ļ": 2449,
      "ä¸įèĥ½": 2450,
      "ä½ľçĶ¨": 2451,
      "ç¬¬åįģ": 2452,
      "2014": 2453,
      "éĶĻ": 2454,
      "é¡¹çĽ®": 2455,
      "çĶļèĩ³": 2456,
      "æ¿Ģ": 2457,
      "ä¹°": 2458,
      "æĪĪ": 2459,
      "çĽĲ": 2460,
      "åĿļ": 2461,
      "å»ºè®¾": 2462,
      "æĢ§çļĦ": 2463,
      "éĤ»": 2464,
      "çĭ®": 2465,
      "éŃĶ": 2466,
      "èŀį": 2467,
      "å¸ķ": 2468,
      "èĤ¯": 2469,
      "æĽ¾ç»ı": 2470,
      "ent": 2471,
      "åĲķ": 2472,
      "ä½©": 2473,
      "ç»ľ": 2474,
      "åĬª": 2475,
      "æĪª": 2476,
      "éĥĳ": 2477,
      "åĨħèĴĻåı¤": 2478,
      "ç¿°": 2479,
      "çĵľ": 2480,
      "èĩªå·±çļĦ": 2481,
      "è®Ńç»ĥ": 2482,
      "åĪĳ": 2483,
      "ç»©": 2484,
      "å±±ä¸ľ": 2485,
      "éģ¿": 2486,
      "åĪ¶éĢł": 2487,
      "çĤ¸": 2488,
      "æī§è¡Į": 2489,
      "ç¿łéĽĢèĬ±": 2490,
      "è¿Ī": 2491,
      "ç»¼": 2492,
      "ä¸īå¹´": 2493,
      "éĴ±": 2494,
      "ç½ĳç«Ļ": 2495,
      "æ¤Ĵ": 2496,
      "ç¼ħçĶ¸": 2497,
      "ĠN": 2498,
      "ä»ģ": 2499,
      "åĿĹ": 2500,
      "å®īåħ¨": 2501,
      "äº§ä¸ļ": 2502,
      "ãģ®": 2503,
      "æ¨ª": 2504,
      "åħ½": 2505,
      "ä¹±": 2506,
      "æ²ĥ": 2507,
      "è´¡": 2508,
      "è¡ĮæĺŁ": 2509,
      "æķ°æį®": 2510,
      "æ²»çĸĹ": 2511,
      "èĦļ": 2512,
      "æħķå®¹": 2513,
      "ĠG": 2514,
      "åį±": 2515,
      "çĸĳ": 2516,
      "éª¨": 2517,
      "éĢŁåº¦": 2518,
      "äºİæĺ¯": 2519,
      "åĿı": 2520,
      "é©¬æĿ¥": 2521,
      "éĿ©åĳ½": 2522,
      "im": 2523,
      "åįĪ": 2524,
      "æ³ī": 2525,
      "å¤ļæķ°": 2526,
      "å¿ł": 2527,
      "äº§åĵģ": 2528,
      "ç»Łæ²»": 2529,
      "ç²ī": 2530,
      "çºªå¿µ": 2531,
      "ä½ĽæķĻ": 2532,
      "å¹³æĸ¹åħ¬éĩĮ": 2533,
      "ä¼ģä¸ļ": 2534,
      "åĲİçļĦ": 2535,
      "æİ¢": 2536,
      "çĪµ": 2537,
      "åħ±æľī": 2538,
      "çĮª": 2539,
      "æĤ£": 2540,
      "å´ĩ": 2541,
      "±ä¹Ĳ": 2542,
      "ä¸Ģæ¬¡": 2543,
      "ç§ģ": 2544,
      "åĳ¼": 2545,
      "æĹ¶åĢĻ": 2546,
      "å¹³åĿĩ": 2547,
      "éħ®": 2548,
      "åĩ»è´¥": 2549,
      "åĽ½éĻħæľºåľº": 2550,
      "åĶ±çīĩ": 2551,
      "ç¾¤å²Ľ": 2552,
      "ä¸Ńåįİæ°ĳåĽ½": 2553,
      "ç¼©": 2554,
      "çĽ¸å¯¹": 2555,
      "éľ²": 2556,
      "æ²³åįĹ": 2557,
      "å±±åĿ¡èįīåľ°": 2558,
      "èĥ¡æ¤Ĵ": 2559,
      "çĺ": 2560,
      "èµŀ": 2561,
      "é¢Ŀ": 2562,
      "åĨ¬éĿĴç§ĳ": 2563,
      "è¿ĲåĬ¨åĳĺ": 2564,
      "çıįçıłèıľ": 2565,
      "åĲ¦": 2566,
      "æī¬": 2567,
      "èµĸ": 2568,
      "åĪĨä¸º": 2569,
      "2001": 2570,
      "ãĢįãĢģ": 2571,
      "ç¾İæ´²": 2572,
      "æĪĸèĢħ": 2573,
      "èĳ£": 2574,
      "å°¼æ³Ĭ": 2575,
      "æĶ¹ä¸º": 2576,
      "åıĪåĲį": 2577,
      "èµĦæĸĻ": 2578,
      "è°ĥæŁ¥": 2579,
      "Ġthe": 2580,
      "åĨ¬éĿĴç§ĳåĨ¬éĿĴ": 2581,
      "å°¼æ³Ĭå°Ķ": 2582,
      "æŀĲ": 2583,
      "ç«ŀ": 2584,
      "æĢ¥": 2585,
      "èĩªçĦ¶": 2586,
      "æ¢¦": 2587,
      "å¤ªç©º": 2588,
      "um": 2589,
      "ĠE": 2590,
      "äºķ": 2591,
      "åľĪ": 2592,
      "çĽĬ": 2593,
      "æĸ¯åĿ¦": 2594,
      "çĤ®": 2595,
      "éĤĢ": 2596,
      "å¸ĮæľĽ": 2597,
      "åĦ¿åŃĲ": 2598,
      "çİ¯å¢ĥ": 2599,
      "æ½®": 2600,
      "èĸĩ": 2601,
      "ç¾İåħĥ": 2602,
      "æļĹ": 2603,
      "è¾½å®ģ": 2604,
      "åĨ¬éĿĴç§ĳåĨ¬éĿĴå±ŀçļĦæ¤įçī©": 2605,
      "å°ĸ": 2606,
      "åıĳåĬ¨": 2607,
      "ä¸»æĮģ": 2608,
      "ä¸Ŀ": 2609,
      "æ¸¡": 2610,
      "åĲĪä½ľ": 2611,
      "å®īå¾½": 2612,
      "åŁºç¡": 2613,
      "æĥł": 2614,
      "è¾¾åĪ°": 2615,
      "ind": 2616,
      "è§Ħå®ļ": 2617,
      "ä¸Ģèµ·": 2618,
      "æĢĢ": 2619,
      "ä¸»æķĻ": 2620,
      "é¡¾": 2621,
      "han": 2622,
      "åı¬": 2623,
      "åħĦ": 2624,
      "åĩ½": 2625,
      "è¡Įä¸º": 2626,
      "ä¸ĭçļĦ": 2627,
      "æ¼Ķåĳĺ": 2628,
      "ç¿¼": 2629,
      "ĠJ": 2630,
      "è¯¯": 2631,
      "çļĦæ¸": 2632,
      "èĥ½å¤Ł": 2633,
      "çĥ¯": 2634,
      "900": 2635,
      "ia": 2636,
      "ter": 2637,
      "åĮĹéĥ¨": 2638,
      "è¿Ļæĺ¯": 2639,
      "ç¬¬ä¸Ģæ¬¡": 2640,
      "åĪĽä½ľ": 2641,
      "90": 2642,
      "ig": 2643,
      "ou": 2644,
      "åĽ½çİĭ": 2645,
      "åĨĮ": 2646,
      "ç½Ĺé©¬": 2647,
      "å®ŀéĻħ": 2648,
      "ä¸Ńåħ±": 2649,
      "ä¼Ł": 2650,
      "æµ¦": 2651,
      "åĪĨéĴŁ": 2652,
      "ä¸Ĭéĺµ": 2653,
      "éĹŃ": 2654,
      "å·¥ä¼ļ": 2655,
      "è¢«ç§°ä¸º": 2656,
      "æŀĹç¼ĺ": 2657,
      "ä»»åĬ¡": 2658,
      "å¦¹": 2659,
      "é¾Ħ": 2660,
      "æįķ": 2661,
      "æ¨Ł": 2662,
      "èİ²èĬ±": 2663,
      "åĲ¬": 2664,
      "è¿¹": 2665,
      "åĨħå®¹": 2666,
      "å®ļä¹ī": 2667,
      "ç´§": 2668,
      "1998": 2669,
      "åľĨå½¢": 2670,
      "èªī": 2671,
      "èľĤåı·": 2672,
      "èĴ²æ¡ĥ": 2673,
      "ä½Ĳ": 2674,
      "è¿«": 2675,
      "æ°§": 2676,
      "ä¸įä¹ħ": 2677,
      "æİĮ": 2678,
      "çĲĨè®º": 2679,
      "éĿĴæµ·": 2680,
      "æ¶²": 2681,
      "æ¶ī": 2682,
      "èŁ¹èĽĽç§ĳ": 2683,
      "åŁºç¡Ģ": 2684,
      "æĺŃ": 2685,
      "åħ¶åĲİ": 2686,
      "çĲĥä¼ļ": 2687,
      "ãĢįï¼Ī": 2688,
      "ç¨³": 2689,
      "æĺİæľĿ": 2690,
      "è£Ķ": 2691,
      "æ¼Ķåĩº": 2692,
      "å¤ĦçĲĨ": 2693,
      "ä»įçĦ¶": 2694,
      ")ãĢĤ": 2695,
      "ce": 2696,
      "åºŁ": 2697,
      "æĭŁ": 2698,
      "æ²ī": 2699,
      "èĥº": 2700,
      "åĩºçĶŁäºİ": 2701,
      "æ±ł": 2702,
      "åı°åĮĹ": 2703,
      "èµĽåŃ£": 2704,
      "çĽ¸å½ĵ": 2705,
      "åĲĦç§į": 2706,
      "é¼ĵ": 2707,
      "ç§įåŃĲ": 2708,
      "æ±ĩ": 2709,
      "éĻĨåĨĽ": 2710,
      "å®ļçļĦ": 2711,
      "å¤©çĦ¶": 2712,
      "åŁºæľ¬": 2713,
      "åħ±åĲĮ": 2714,
      "æ®ĸ": 2715,
      "æ»ĳ": 2716,
      "æ²³åĮĹ": 2717,
      "æ¨±": 2718,
      "ation": 2719,
      "åĶ¯ä¸Ģ": 2720,
      "op": 2721,
      "åĽ½çļĦ": 2722,
      "åŃ¦åĳĺ": 2723,
      "èµı": 2724,
      "ä¸įæĺ¯": 2725,
      "é¢ģ": 2726,
      "å§ĵ": 2727,
      "æıı": 2728,
      "è£ģ": 2729,
      "æĮĩæĮ¥": 2730,
      "åĲįåŃĹ": 2731,
      "ä¸ªæľĪ": 2732,
      "çļĦæĦ": 2733,
      "ä¿Ĺ": 2734,
      "å¦»": 2735,
      "ç®Ń": 2736,
      "æµģè¡Į": 2737,
      "çĻ½èī²": 2738,
      "âĢĶâĢĶ": 2739,
      "è®¢": 2740,
      "å¾Ĳ": 2741,
      "å¥Ĺ": 2742,
      "éĥ¨ä»½": 2743,
      "éģ¥": 2744,
      "é»ĳèī²": 2745,
      "ä¹ĺå®¢": 2746,
      "åªĴä½ĵ": 2747,
      "çļĦæĥħ": 2748,
      "os": 2749,
      "å¾¡": 2750,
      "å£ģ": 2751,
      "å°ıè¯´": 2752,
      "å¢¨": 2753,
      "åħ´å»º": 2754,
      "æİĴåĲį": 2755,
      "çģĮä¸Ľä¸Ń": 2756,
      "em": 2757,
      "çļĦç¬¬": 2758,
      "åŃŁ": 2759,
      "ä¸Ģæł·": 2760,
      "åºĻ": 2761,
      "ç¬Ķ": 2762,
      "æŃ¤æĹ¶": 2763,
      "éĵľ": 2764,
      "åħ±äº§": 2765,
      "åŀĭçļĦ": 2766,
      "åħ³äºİ": 2767,
      "å®ĺæĸ¹": 2768,
      "æĵį": 2769,
      "ul": 2770,
      "æĸ°éĹ»": 2771,
      "è®¾ç«ĭ": 2772,
      "å®īæıĲ": 2773,
      "æ·¡": 2774,
      "å±ħæ°ĳ": 2775,
      "ä¸įåĲĮçļĦ": 2776,
      "é¼łå°¾": 2777,
      "åįĸ": 2778,
      "è¿·": 2779,
      "ç«¥": 2780,
      "ç½¢": 2781,
      "èĬ±èŁ¹èĽĽ": 2782,
      "ä¸¥éĩį": 2783,
      "é¢ľ": 2784,
      "ä¸ľäº¬": 2785,
      "éĶ®": 2786,
      "åģ¶": 2787,
      "åįĹäº¬": 2788,
      "æĢª": 2789,
      "å¹¶äºİ": 2790,
      "æĸ°åĬł": 2791,
      "å¸Ĥåľº": 2792,
      "1999": 2793,
      "åĲīæŀĹ": 2794,
      "åĳ½åĲį": 2795,
      "ç¬¬äºĮæ¬¡": 2796,
      "å¤ªå¹³æ´ĭ": 2797,
      "é¼łå°¾èįī": 2798,
      "æĸ°åĬłåĿ¡": 2799,
      "Ľç§ĳ": 2800,
      "å¹´åľ¨": 2801,
      "è´§": 2802,
      "åĮºçļĦ": 2803,
      "å¼ķèµ·": 2804,
      "èĭ±æĸĩ": 2805,
      "æľ¨æĺŁ": 2806,
      "éº»": 2807,
      "æĲŃ": 2808,
      "éĨĩ": 2809,
      "åĵ²": 2810,
      "åİŁåĽł": 2811,
      "çĽ¸åĲĮ": 2812,
      "èĮ¶": 2813,
      "çĭĤ": 2814,
      "å§Ķä¼ļ": 2815,
      "æ¯ĽèĮ": 2816,
      "çº¢èī²": 2817,
      "è½¨éģĵ": 2818,
      "å¤§é»Ħ": 2819,
      "æľĪåı°": 2820,
      "è¾ħ": 2821,
      "åĿĢ": 2822,
      "å£³": 2823,
      "1997": 2824,
      "ãĢįãĢģãĢĮ": 2825,
      "35": 2826,
      "å¤§éĥ¨åĪĨ": 2827,
      "éķľ": 2828,
      "æĹ¥åľ¨": 2829,
      "è´ŀ": 2830,
      "çĽ®æłĩ": 2831,
      "æľĢåĪĿ": 2832,
      "2016": 2833,
      "æº¶": 2834,
      "åıĸä»£": 2835,
      "çļĦä¸Ģç§į": 2836,
      "èħĬ": 2837,
      "åįıåĬ©": 2838,
      "éĢĲæ¸Ĳ": 2839,
      "çŀ": 2840,
      "ä¸ŃåĽ½å¤§éĻĨçļĦæ": 2841,
      "è¡¨éĿ¢": 2842,
      "è®¡ç®Ĺ": 2843,
      "æĪĳä»¬": 2844,
      "å°Ĭ": 2845,
      "å¼ĥ": 2846,
      "ä¸įå°ĳ": 2847,
      "åĿĲ": 2848,
      "åĽĽå¹´": 2849,
      "é£ŀè¡Į": 2850,
      "æ¨¡å¼ı": 2851,
      "æ¼ĶåĶ±ä¼ļ": 2852,
      "éĢĿ": 2853,
      "åĪĨåŃĲ": 2854,
      "ä¼ļåľ¨": 2855,
      "åıĳå°Ħ": 2856,
      "èĭ¦": 2857,
      "å½ĵéĢī": 2858,
      "éĺ¿å°Ķ": 2859,
      "th": 2860,
      "´èĿ¶": 2861,
      "ĠK": 2862,
      "å½©": 2863,
      "åīĳ": 2864,
      "éĥ¨çļĦ": 2865,
      "2015": 2866,
      "åĨħéĺģ": 2867,
      "æĦ¿": 2868,
      "æķ°éĩı": 2869,
      "çĦ¶åĲİ": 2870,
      "åºĶçĶ¨": 2871,
      "åĩłä¹İ": 2872,
      "èĿ´èĿ¶": 2873,
      "éĵ¶èİ²èĬ±": 2874,
      "åı«": 2875,
      "å¤§åĪ©": 2876,
      "çļĦæİ": 2877,
      "èĪį": 2878,
      "ç»ıå¸¸": 2879,
      "åĮĸåŃ¦": 2880,
      "èįīä¸Ľ": 2881,
      "æħĪ": 2882,
      "Ġc": 2883,
      "åĲĥ": 2884,
      "éĢĬ": 2885,
      "è´¸": 2886,
      "190": 2887,
      "é©±": 2888,
      "å°ıæĻº": 2889,
      "å¦ĩ": 2890,
      "éĩįåºĨ": 2891,
      "è®®ä¼ļ": 2892,
      "è§£æĶ¾": 2893,
      "çĥŃå¸¦": 2894,
      "æ¯ĽèĮĽç§ĳ": 2895,
      "å¤§é»ĦèľĤåı·": 2896,
      "åįµ": 2897,
      "å¯»": 2898,
      "éĥ¨éķ¿": 2899,
      "åħ¬åħ±": 2900,
      "åŀĤ": 2901,
      "æģĲ": 2902,
      "æ¼«": 2903,
      "æĴŀ": 2904,
      "åĽŀåĪ°": 2905,
      "æĥħåĨµ": 2906,
      "çĮ«": 2907,
      "ows": 2908,
      "è¾Ľ": 2909,
      "åħ¬åĽŃ": 2910,
      "èĩ³ä»Ĭ": 2911,
      "è·ĳ": 2912,
      "æľ¬é±¼": 2913,
      "æĸ¹åĲĳ": 2914,
      "æ³ķå¾ĭ": 2915,
      "åįģäºĮ": 2916,
      "æ¯Ķè¾ĥ": 2917,
      "å°¼æĸ¯": 2918,
      "åı¯ä»¥æĮĩ": 2919,
      "åĲīæĭī": 2920,
      "æķ´ä¸ª": 2921,
      "é¼łçĸ«": 2922,
      "è·Ŀç¦»": 2923,
      "å¸®åĬ©": 2924,
      "éŀ": 2925,
      "Ġ3": 2926,
      "äººç±»": 2927,
      "æ³¥": 2928,
      "éĽ¶": 2929,
      "æ±½": 2930,
      "åĲĪçī©": 2931,
      "éļĶ": 2932,
      "å±ķå¼Ģ": 2933,
      "æ³¢åħ°": 2934,
      "åįļçī©": 2935,
      "èĶ·": 2936,
      "ra": 2937,
      "çī§": 2938,
      "è¡¡": 2939,
      "å¯¿": 2940,
      "åĪĨæŀĲ": 2941,
      "ï¼ļãĢĮ": 2942,
      "çŃīäºº": 2943,
      "æ¡£": 2944,
      "ä½¿å¾Ĺ": 2945,
      "ç¿»": 2946,
      "ç²Ĺ": 2947,
      "ä»¥åıĬä¸ŃåĽ½å¤§éĻĨçļĦæĸ°çĸĨçŃīåľ°": 2948,
      "åħĪåĲİ": 2949,
      "ä»ĸä»¬çļĦ": 2950,
      "ç¢³": 2951,
      "åħ±äº§åħļ": 2952,
      "èĶ·èĸĩ": 2953,
      "äº«": 2954,
      "åħģ": 2955,
      "ä»¥æĿ¥": 2956,
      "æľºä¼ļ": 2957,
      "å¢Ļ": 2958,
      "çĮİ": 2959,
      "è®°è½½": 2960,
      "ä¼¦æķ¦": 2961,
      "æķĪåĬĽ": 2962,
      "çİ©å®¶": 2963,
      "³èįī": 2964,
      "å¥ī": 2965,
      "é«ĺåº¦": 2966,
      "çºªå½ķ": 2967,
      "çļĩåĲİ": 2968,
      "ç¯ĩ": 2969,
      "ä¸ºèŁ¹èĽĽç§ĳ": 2970,
      "ä¼°": 2971,
      "ä¼´": 2972,
      "æķı": 2973,
      "å±±è¥¿": 2974,
      "æľ¬ç«Ļ": 2975,
      "æľĢå¤§": 2976,
      "åħ¨éĥ¨": 2977,
      "èįīçĶ¸": 2978,
      "çĩĥ": 2979,
      "æĭįæĳĦ": 2980,
      "çļĦä¸»": 2981,
      "çŃĶ": 2982,
      "å§Ĳ": 2983,
      "äºļç¾İ": 2984,
      "2017": 2985,
      "å¹¿æ³Ľ": 2986,
      "æģĴ": 2987,
      "ç¤¾åĮº": 2988,
      "é£İæł¼": 2989,
      "å¹¿è¥¿çŃīåľ°": 2990,
      "é©¬æĿ¥è¥¿äºļ": 2991,
      "indows": 2992,
      "ie": 2993,
      "ç§ĳæĬĢ": 2994,
      "èįĴ": 2995,
      "èĩªåĬ¨": 2996,
      "èģĶéĤ¦": 2997,
      "éĶĭ": 2998,
      "è¿Ĳè¾ĵ": 2999,
      "æ»¨": 3000,
      "ç¡«": 3001,
      "éļıåĲİ": 3002,
      "çĨŁ": 3003,
      "ĠV": 3004,
      "ï¼ĮãĢĬ": 3005,
      "æĺĨ": 3006,
      "ç§Ł": 3007,
      "å¼±": 3008,
      "çº²": 3009,
      "âĢ¦": 3010,
      "æĸĩçī©": 3011,
      "å¡ŀå°Ķ": 3012,
      "èĢģé¹": 3013,
      "ä½ĵèĤ²åľº": 3014,
      "éĺĶåı¶": 3015,
      "äºļç¾İå°¼äºļ": 3016,
      "çĴ": 3017,
      "ä¹ĥ": 3018,
      "æīİ": 3019,
      "å¯Ĵ": 3020,
      "è¾ŀ": 3021,
      "é¢Ĺ": 3022,
      "è¡¨æ¼Ķ": 3023,
      "åıĪç§°": 3024,
      "è¶ħçº§": 3025,
      "åĵ¥åĲīæĭī": 3026,
      "æ½ĺ": 3027,
      "åĬ³åĬ¨": 3028,
      "åı°åįĹå¸Ĥ": 3029,
      "åĹ": 3030,
      "Ġs": 3031,
      "ãĢİ": 3032,
      "åľ¨æŃ¤": 3033,
      "å¹´åº¦": 3034,
      "äººå£«": 3035,
      "ä»¥åĲİ": 3036,
      "åĪĨéĺŁ": 3037,
      "ä½ĵçļĦ": 3038,
      "èĳ¬": 3039,
      "éĴ¢": 3040,
      "çł´åĿı": 3041,
      "ä¸ĭè¾ĸçļĦä¸Ģä¸ª": 3042,
      "èĢģé¹³èįī": 3043,
      "ãĢı": 3044,
      "å¹¸": 3045,
      "ä»¥ä¸Ĭ": 3046,
      "äºĨä¸Ģä¸ª": 3047,
      "åĩºçļĦ": 3048,
      "åħ¬å°º": 3049,
      "è¿Ļæł·": 3050,
      "æĭīæĸ¯": 3051,
      "å®ĥçļĦ": 3052,
      "å²©çŁ³": 3053,
      "æ¤į": 3054,
      "å¸ģ": 3055,
      "åĨĪ": 3056,
      "æ°¢": 3057,
      "å¤ļçļĦ": 3058,
      "é»ĺ": 3059,
      "åĬłä¸Ĭ": 3060,
      "å»ºéĢł": 3061,
      "èİī": 3062,
      "åģı": 3063,
      "æ®Ĭ": 3064,
      "éľĩ": 3065,
      "åıįå¯¹": 3066,
      "ä¸ĩäºº": 3067,
      "ä¹ĭéĹ´çļĦ": 3068,
      "åĽ½æ°ĳåħļ": 3069,
      "65": 3070,
      "od": 3071,
      "¢å¤į": 3072,
      "æĪ´": 3073,
      "æĭĴ": 3074,
      "å¥ı": 3075,
      "çĲĥåŃ£": 3076,
      "æľĢæĹ©": 3077,
      "é©¶": 3078,
      "å¸¸ç»¿": 3079,
      "å·ŀå¸Ĥ": 3080,
      "ç¨ĭåºı": 3081,
      "åĲĦåľ°": 3082,
      "æ¯ıå¹´": 3083,
      "éĩĳæŃ£æģ©": 3084,
      "45": 3085,
      "Ġv": 3086,
      "ä¼¸": 3087,
      "æľīçļĦ": 3088,
      "å½¼": 3089,
      "èµ´": 3090,
      "âĢĵ": 3091,
      "è¥¿åįĹ": 3092,
      "åĮĸçļĦ": 3093,
      "éļľ": 3094,
      "è§ĦåĪĴ": 3095,
      "çĪĨåıĳ": 3096,
      "åŃ©": 3097,
      "ç»ĺ": 3098,
      "å±¿": 3099,
      "åĨ°": 3100,
      "éĻ·": 3101,
      "ç¾İåĨĽ": 3102,
      "åĲĪå¹¶": 3103,
      "ä¸¤äºº": 3104,
      "æĴĴ": 3105,
      "é¹¿": 3106,
      "åı¥": 3107,
      "çĶ³": 3108,
      "åį¢": 3109,
      "èĭĹ": 3110,
      "èĩªæ²»": 3111,
      "æŃ¤åĲİ": 3112,
      "è·¯æĹģ": 3113,
      "å¹¿æĴŃ": 3114,
      "ç¦ħ": 3115,
      "æģ¢å¤į": 3116,
      "èĿĩ": 3117,
      "éªĳåħµ": 3118,
      "è¤Ĳ": 3119,
      "éī": 3120,
      "ä¸Ńå±±": 3121,
      "å¤§çº¦": 3122,
      "å¤§åĪ©äºļ": 3123,
      "æľīæĹ¶": 3124,
      "å¹¿åľº": 3125,
      "çİĭåĽ½": 3126,
      "èĢħçļĦ": 3127,
      "å¥³åŃĲ": 3128,
      "æ½ľ": 3129,
      "éī´": 3130,
      "Windows": 3131,
      "å¹´èµ·": 3132,
      "è½´": 3133,
      "ç½ķ": 3134,
      "æ°ĳæĹı": 3135,
      "åŁºåľ°": 3136,
      "ãģŁ": 3137,
      "è®®åĳĺ": 3138,
      "åıªæĺ¯": 3139,
      "å¼łä¸ĵè¾ĳ": 3140,
      "è¿ŀæİ¥": 3141,
      "è£ħç½®": 3142,
      "é¸¡": 3143,
      "é¥®": 3144,
      "åĮ»éĻ¢": 3145,
      "è¿ĶåĽŀ": 3146,
      "\"ï¼ī": 3147,
      "St": 3148,
      "ay": 3149,
      "ec": 3150,
      "per": 3151,
      "Ġ\"": 3152,
      "ï¼ģ": 3153,
      "çºµ": 3154,
      "ä¿ĥ": 3155,
      "ä½Ĩåľ¨": 3156,
      "è®¾å¤ĩ": 3157,
      "æ¤įçī©å¿Ĺ": 3158,
      "é¾Ļæ±Ł": 3159,
      "1992": 3160,
      "è§Ħæ¨¡": 3161,
      "èĤ¡ä»½": 3162,
      "ï½": 3163,
      "ĠãĢĤ": 3164,
      "įéģ¥": 3165,
      "æĿŃ": 3166,
      "å¤§åŀĭ": 3167,
      "éĢįéģ¥": 3168,
      "æĹ¥åĨĽ": 3169,
      "ä¸įä¼ļ": 3170,
      "ä½ľæĪĺ": 3171,
      "ä¸»è§Ĵ": 3172,
      "é«ĺçŃī": 3173,
      "è®¾æĸ½": 3174,
      "ç¨į": 3175,
      "éĤ®": 3176,
      "éĿĴå¹´": 3177,
      "è±ª": 3178,
      "ãģ«": 3179,
      "éľ¸": 3180,
      "æ¢°": 3181,
      "è¿ŀç»Ń": 3182,
      "èį·åħ°": 3183,
      "æĸľ": 3184,
      "ï¼Ī\"": 3185,
      "æµª": 3186,
      "åĿĽ": 3187,
      "æľºåħ³": 3188,
      "ç¨İ": 3189,
      "æĢ»çĲĨ": 3190,
      "èĮİ": 3191,
      "åĸ·": 3192,
      "é»ĳé¾Ļæ±Ł": 3193,
      "ãĤĴ": 3194,
      "å±ħä½ı": 3195,
      "æ¾³å¤§åĪ©äºļ": 3196,
      "éĢıè¿ĩ": 3197,
      "æ§": 3198,
      "ĠO": 3199,
      "ä¸Ńæĸĩ": 3200,
      "çº¸": 3201,
      "è§¦": 3202,
      "ä¹ĭä¸Ń": 3203,
      "åĬłæĭī": 3204,
      "ä¸īä¸ª": 3205,
      "å·´é»İ": 3206,
      "1996": 3207,
      "èĻļ": 3208,
      "æĬ¥åĳĬ": 3209,
      "å¤±åİ»": 3210,
      "æĹ©æľŁ": 3211,
      "åĽ°": 3212,
      "åŃĶ": 3213,
      "éĻĢ": 3214,
      "åĩĮ": 3215,
      "éĺ»": 3216,
      "æķ¬": 3217,
      "è´¤": 3218,
      "éģį": 3219,
      "çĶµèĦĳ": 3220,
      "åŀĴ": 3221,
      "åİŁæľ¬": 3222,
      "èĭ±è¯Ń": 3223,
      "å¸ĮèħĬ": 3224,
      "æĿĤå¿Ĺ": 3225,
      "ç£ģ": 3226,
      "éĶ¡éĩĳ": 3227,
      "48": 3228,
      "è¾ī": 3229,
      "ä¾¯": 3230,
      "é»Ħèī²": 3231,
      "ĊĊĊ": 3232,
      "æĮĩåĩº": 3233,
      "æļĤ": 3234,
      "å®ĹæķĻ": 3235,
      "åįļå£«": 3236,
      "ä¸´æĹ¶": 3237,
      "ç»¼åĲĪ": 3238,
      "èĶ·èĸĩç§ĳ": 3239,
      "è²": 3240,
      "ï¼ĮâĢľ": 3241,
      "åįĵ": 3242,
      "åĪĨç±»": 3243,
      "æľĢå¤§çļĦ": 3244,
      "åĽ¢ä½ĵ": 3245,
      "1990": 3246,
      "åĭĩ": 3247,
      "å®¢è¿Ĳ": 3248,
      "éĵ¶è¡Į": 3249,
      "éģŃåĪ°": 3250,
      "è¯¾ç¨ĭ": 3251,
      "åįļçī©é¦Ĩ": 3252,
      "32": 3253,
      "¹ĸ": 3254,
      "ï¼ħ": 3255,
      "çļĦæĸ°": 3256,
      "å®¿": 3257,
      "å®ľ": 3258,
      "åĩŃ": 3259,
      "æĪĲç»©": 3260,
      "è´¯": 3261,
      "ç¬¬äºĶ": 3262,
      "æĺİæĺ¾": 3263,
      "ç»Łä¸Ģ": 3264,
      "åķĨä¸ļ": 3265,
      "est": 3266,
      "çŁ¿å·¥": 3267,
      "ï½ŀ": 3268,
      "36": 3269,
      "ss": 3270,
      "åı¯è¾¾": 3271,
      "æĶ¿çŃĸ": 3272,
      "åĲĪæĪĲ": 3273,
      "äºĭåĬ¡": 3274,
      "æŁĦ": 3275,
      "åĪĹè¡¨": 3276,
      "æŃ»äº¡": 3277,
      "å¾ĭå®¾": 3278,
      "èı²å¾ĭå®¾": 3279,
      "å·¦åı³": 3280,
      "èĿ´èĿ¶é±¼": 3281,
      "37": 3282,
      "=\"": 3283,
      "äººä»¬": 3284,
      "æ²Ī": 3285,
      "è¥¿çıŃ": 3286,
      "åıĳå¸ĥ": 3287,
      "äºĮä¸ĸ": 3288,
      "èĽĭ": 3289,
      "éĶģ": 3290,
      "ç¢ĳ": 3291,
      "æŃ¥æŀª": 3292,
      "é¢ĳéģĵ": 3293,
      "è´¸æĺĵ": 3294,
      "è¥¿çıŃçīĻ": 3295,
      "ak": 3296,
      "ov": 3297,
      "çļĦä¸»è¦ģ": 3298,
      "å®ª": 3299,
      "ä¸ĢåĲį": 3300,
      "å¤§æĪĺ": 3301,
      "æĹ¶çļĦ": 3302,
      "åĿĳ": 3303,
      "èĪĴ": 3304,
      "å¼ĢæĶ¾": 3305,
      "æŁ´": 3306,
      "åįģåĪĨ": 3307,
      "åŁºäºİ": 3308,
      "è§Ĥä¼Ĺ": 3309,
      "å¥¥æĸ¯": 3310,
      "çģ«ç®Ń": 3311,
      "æµĭéĩı": 3312,
      "æĺ¥èĬ±": 3313,
      "åĩ½æķ°": 3314,
      "æĺ¯è±Ĩç§ĳé»ĦèĬªå±ŀçļĦæ¤įçī©": 3315,
      "çļĦæ¼": 3316,
      "æĬĺ": 3317,
      "æīĢåľ¨": 3318,
      "é¡µ": 3319,
      "åħ¨çĲĥ": 3320,
      "å®īè£ħ": 3321,
      "ç©ºåĨĽ": 3322,
      "æĶ¹åıĺ": 3323,
      "1995": 3324,
      "èıĬ": 3325,
      "æĿ¡ä»¶": 3326,
      "åĳ½ä»¤": 3327,
      "åĵĪå°Ķ": 3328,
      "æ³°åĽ½": 3329,
      "ç®Ģç§°": 3330,
      "ĊĊĊĊĊĊĊĊ": 3331,
      "38": 3332,
      "ap": 3333,
      "ä»Ĺ": 3334,
      "å¹´åĲİ": 3335,
      "æīģ": 3336,
      "èĩĢ": 3337,
      "ä¸įæĸŃ": 3338,
      "ä¹ĭå¤ĸ": 3339,
      "éĽĮ": 3340,
      "ç¬¬ä¸Ģä¸ª": 3341,
      "åĬ¨çĶ»": 3342,
      "çİĭæľ±": 3343,
      "æķĻåłĤ": 3344,
      "è¿Ĳè¡Į": 3345,
      "è§£åĨ³": 3346,
      "æµĭè¯ķ": 3347,
      "å´ĸ": 3348,
      "éĶ¦æłĩ": 3349,
      "çĲīçĲĥ": 3350,
      "ot": 3351,
      "ut": 3352,
      "åĩī": 3353,
      "åŃ¦èĢħ": 3354,
      "è§Ī": 3355,
      "çļĦæĮ": 3356,
      "çĶ¨æĿ¥": 3357,
      "åĬłæĭ¿": 3358,
      "å»ºè®®": 3359,
      "å¤©æ´¥": 3360,
      "çĥ§": 3361,
      "å¥³æĢ§": 3362,
      "é¢ĨåŁŁ": 3363,
      "åıĺåĮĸ": 3364,
      "é¸Ł": 3365,
      "çĳŁ": 3366,
      "æ¯įäº²": 3367,
      "44": 3368,
      "oc": 3369,
      "ub": 3370,
      "åľ¨è¿Ļ": 3371,
      "çº¯": 3372,
      "åĴ¸": 3373,
      "è·ĥ": 3374,
      "ä¸īåįģ": 3375,
      "çģ¾": 3376,
      "çĸ¾": 3377,
      "çĭ±": 3378,
      "çĭĹ": 3379,
      "æ¢¯": 3380,
      "ä¸ĵä¸ļ": 3381,
      "æĬ¥æĺ¥èĬ±": 3382,
      "æĶ¯æı´": 3383,
      "æŃ¦åĻ¨": 3384,
      "å¢ĥåĨħ": 3385,
      "è¤Ĳèī²": 3386,
      "çļĦåīį": 3387,
      "åľ°ä¸ĭ": 3388,
      "åĽłèĢĮ": 3389,
      "ç»ĦåĲĪ": 3390,
      "é¦ĸéĥ½": 3391,
      "å¨ľ": 3392,
      "åİ»ä¸ĸ": 3393,
      "é¸Ń": 3394,
      "å¿«éĢŁ": 3395,
      "ç½¢å·¥": 3396,
      "li": 3397,
      "åį¿": 3398,
      "åĬ±": 3399,
      "å¤ļæ¬¡": 3400,
      "ç½ļ": 3401,
      "åħ¬åĪĨ": 3402,
      "åħ¬è·¯": 3403,
      "ç§ĳçıįçıłèıľ": 3404,
      "éľį": 3405,
      "ä¿ĿçķĻ": 3406,
      "1994": 3407,
      "åĪĻæĺ¯": 3408,
      "çĹĽ": 3409,
      "æ¥ļ": 3410,
      "ich": 3411,
      "é¢Ĩå¯¼äºº": 3412,
      "éĺ¶æ®µ": 3413,
      "å°½ç®¡": 3414,
      "éĺ¿æĭīä¼¯": 3415,
      "é¢ľèī²": 3416,
      "é¬": 3417,
      "åĩºäºĨ": 3418,
      "åħ¬çĪµ": 3419,
      "å»ī": 3420,
      "ä¸ľåįĹ": 3421,
      "ç¥¥": 3422,
      "èĮ¨": 3423,
      "ard": 3424,
      "å¡ŀæĭľ": 3425,
      "çĨĬ": 3426,
      "åĩıå°ĳ": 3427,
      "ç¾½æ¯Ľ": 3428,
      "æĬ¥æĺ¥èĬ±ç§ĳçıįçıłèıľ": 3429,
      "34": 3430,
      "Ġp": 3431,
      "ä¼Ĳ": 3432,
      "éĽķ": 3433,
      "èĥ½éĩı": 3434,
      "éĺ¿å¡ŀæĭľ": 3435,
      "æĦıå¤§åĪ©": 3436,
      "å°ĳå¹´": 3437,
      "1980": 3438,
      "åĪĿæľŁ": 3439,
      "é³ŀ": 3440,
      "æĬ¥æĺ¥èĬ±ç§ĳçıįçıłèıľå±ŀçļĦæ¤įçī©": 3441,
      "éĺ¿å¡ŀæĭľçĸĨ": 3442,
      "ãĢĢ": 3443,
      "åŃĿ": 3444,
      "åĩ¡": 3445,
      "è¡į": 3446,
      "æĭĨ": 3447,
      "æ¸Ķ": 3448,
      "åĲĮæł·": 3449,
      "æľªèĥ½": 3450,
      "çĻĮ": 3451,
      "åĬĽçļĦ": 3452,
      "ä¹¦è®°": 3453,
      "çļĦæĦı": 3454,
      "55": 3455,
      "æª": 3456,
      "å®ħ": 3457,
      "æĹ¦": 3458,
      "å°¸": 3459,
      "ç»ķ": 3460,
      "ä¸Ģä½į": 3461,
      "çĶŁæ¶": 3462,
      "æ´ŀ": 3463,
      "åħ¶å®ĥ": 3464,
      "2018": 3465,
      "èĲ¼": 3466,
      "éļĲ": 3467,
      "äºĶå¹´": 3468,
      "åıĮæĸ¹": 3469,
      "æ¦ľ": 3470,
      "å¥ĩå°Ķ": 3471,
      "çļĩå¸Ŀ": 3472,
      "æł¸å¿ĥ": 3473,
      "è½¯ä»¶": 3474,
      "çĶŁæ¶¯": 3475,
      "33": 3476,
      "ĠçļĦ": 3477,
      "çļĦæĹ¶åĢĻ": 3478,
      "å¹»": 3479,
      "è¯¦": 3480,
      "åĲįçļĦ": 3481,
      "ä¸ŃåĽ½äººæ°ĳ": 3482,
      "æİī": 3483,
      "éĩĮæĸ¯": 3484,
      "åĪ¶åº¦": 3485,
      "çĤİ": 3486,
      "æ¯ıä¸ª": 3487,
      "æħ¢": 3488,
      "è¦": 3489,
      "Ġæ¹ĸåĮĹ": 3490,
      "è¿ħ": 3491,
      "ç»ª": 3492,
      "åĮ£": 3493,
      "å±ı": 3494,
      "çĶ¨æĪ·": 3495,
      "èĬ³": 3496,
      "è¢«è®¤ä¸º": 3497,
      "ç«ĭæ³ķ": 3498,
      "æŁ³": 3499,
      "å¹¿åĳĬ": 3500,
      "è®¾ç½®": 3501,
      "éĥ½æľī": 3502,
      "ä¹ĲéĺŁ": 3503,
      "ç©ºéĹ´": 3504,
      "çıĬ": 3505,
      "åĭ¤": 3506,
      "åĬłæĭ¿å¤§": 3507,
      "ä¸Ļ": 3508,
      "çļĦé«ĺ": 3509,
      "åĽ½åĬ¡": 3510,
      "ä¸ºè±Ĩç§ĳé»ĦèĬªå±ŀçļĦæ¤įçī©": 3511,
      "åĮ¹": 3512,
      "éķ¿çļĦ": 3513,
      "éĥ¨éĹ¨": 3514,
      "è·¨": 3515,
      "é¦¨": 3516,
      "èĩªæĿĢ": 3517,
      "èĹ©": 3518,
      "èŃ¦å¯Ł": 3519,
      "ãĢĤãĢį": 3520,
      "ä¸ĢæŃ¥": 3521,
      "æľīæľº": 3522,
      "ä¸įä¸¹": 3523,
      "è¥¿éĥ¨": 3524,
      "å½ĵä¸Ń": 3525,
      "ers": 3526,
      "å½±çīĩ": 3527,
      "åħĥå¹´": 3528,
      "1991": 3529,
      "åįķæĽ²": 3530,
      "è¿ĺæĺ¯": 3531,
      "åľŁåľ°": 3532,
      "çĬ¶æĢģ": 3533,
      "çĶ·åŃĲ": 3534,
      "åħĨ": 3535,
      "åľ¨ç¾İåĽ½": 3536,
      "å¹´å¼Ģå§ĭ": 3537,
      "åİ¦": 3538,
      "çŃ¹": 3539,
      "éļ¶": 3540,
      "æ¶¦": 3541,
      "å¥³åĦ¿": 3542,
      "ä¿ĿæĮģ": 3543,
      "èº«ä»½": 3544,
      "éĿŀæ´²": 3545,
      "ä¿¡æģ¯": 3546,
      "å¥¹çļĦ": 3547,
      "ist": 3548,
      "èĥĮé³į": 3549,
      "èĶ¡": 3550,
      "è¿ĩç¨ĭä¸Ń": 3551,
      "å¤©çĦ¶æ©¡èĥ¶": 3552,
      "æľµ": 3553,
      "å¤§æ°Ķ": 3554,
      "çĽ¾": 3555,
      "éĿĸ": 3556,
      "ç¾Ĭ": 3557,
      "ä»£çłģ": 3558,
      "æĪĸæĺ¯": 3559,
      "è¿ĲèĲ¥": 3560,
      "åı¸ä»¤": 3561,
      "ang": 3562,
      "æ£ĺ": 3563,
      "åıĤè°ĭ": 3564,
      "èĦĤ": 3565,
      "éĽĨä¸Ń": 3566,
      "1984": 3567,
      "ç½ĳç»ľ": 3568,
      "1949": 3569,
      "åĢĻéĢī": 3570,
      "ä»ĭç»į": 3571,
      "éĤĢè¯·": 3572,
      "çļĦæĥħåĨµ": 3573,
      "æĭĴç»Ŀ": 3574,
      "èĩĢé³į": 3575,
      "Ġm": 3576,
      "çļĦåľ°æĸ¹": 3577,
      "ãĢĤãĢĬ": 3578,
      "æľĭ": 3579,
      "ä»Ķ": 3580,
      "è¿Ł": 3581,
      "æĺ¯é¾ĻèĥĨç§ĳé¾ĻèĥĨå±ŀçļĦæ¤įçī©": 3582,
      "éķ¿æľŁ": 3583,
      "è¥¿åĮĹ": 3584,
      "åħ¬å¸ĥ": 3585,
      "ä¸»ä»»": 3586,
      "èīĺ": 3587,
      "çĲĥåľº": 3588,
      "ä¸ľéĥ¨": 3589,
      "âĢĿï¼Ī": 3590,
      "å°ĨåĨĽ": 3591,
      "å¤©æĸĩ": 3592,
      "ä¸¤ç§į": 3593,
      "çº¦ç¿°": 3594,
      "å¦Ĥä¸ĭ": 3595,
      "ç¨ĭåº¦": 3596,
      "æ¢Ĺ": 3597,
      "èħ¹": 3598,
      "é¡¿åı·": 3599,
      "éĩįè¦ģçļĦ": 3600,
      "èļģ": 3601,
      "ä¸ŃåĽ½å¤§éĻĨçļĦæ¹ĸ": 3602,
      "æµħ": 3603,
      "çİ°è±¡": 3604,
      "å¦ĥ": 3605,
      "åĢį": 3606,
      "æĻ®éĢļ": 3607,
      "ãĤĭ": 3608,
      "åĪĨå¸ĥäºİä¸ŃåĽ½å¤§éĻĨçļĦäºĳåįĹçŃīåľ°": 3609,
      "å³¡": 3610,
      "æĲľ": 3611,
      "åħĦå¼Ł": 3612,
      "æ±½è½¦": 3613,
      "PS": 3614,
      "åĩºçĶŁ": 3615,
      "åĩºä»»": 3616,
      "å¤ļä¸ª": 3617,
      "éģ£": 3618,
      "åľ°åĮºçļĦ": 3619,
      "å»ºäºİ": 3620,
      "éĩĮäºļ": 3621,
      "å°Ĩåħ¶": 3622,
      "åĬĽéĩı": 3623,
      "æ¦Ĥ": 3624,
      "è¡ĮæĶ¿åĮº": 3625,
      "å¤ºå¾Ĺ": 3626,
      "è®¿éĹ®": 3627,
      "æŁĲäºĽ": 3628,
      "ik": 3629,
      "ĴåŃĲ": 3630,
      "åĽ½åĨħ": 3631,
      "éĿ¢çļĦ": 3632,
      "éĩĳå±ŀ": 3633,
      "åĥ§": 3634,
      "ç¯®": 3635,
      "æ°§åĮĸ": 3636,
      "TV": 3637,
      "ev": 3638,
      "çļĦå¤ĸ": 3639,
      "äº¨": 3640,
      "ä¸ºé¾ĻèĥĨç§ĳé¾ĻèĥĨå±ŀçļĦæ¤įçī©": 3641,
      "æľīäºĽ": 3642,
      "çº·": 3643,
      "åŁĶ": 3644,
      "éĹ½": 3645,
      "éģĤ": 3646,
      "èĢĮåľ¨": 3647,
      "çĶµåĬĽ": 3648,
      "éģĵè·¯": 3649,
      "æ¯Ķå¦Ĥ": 3650,
      "å°¼è¥¿äºļ": 3651,
      "çĥŁ": 3652,
      "189": 3653,
      "æĮģç»Ń": 3654,
      "æ¸ħæľĿ": 3655,
      "æŃ¦æ±ī": 3656,
      "1985": 3657,
      "åĪĽåĬŀ": 3658,
      "è®°å½ķ": 3659,
      "å®£ä¼ł": 3660,
      "æĴŃåĩº": 3661,
      "éĶ¦æłĩèµĽ": 3662,
      "47": 3663,
      "68": 3664,
      "The": 3665,
      "ber": 3666,
      "ï¼ĮãĢĮ": 3667,
      "çļĦå½±åĵį": 3668,
      "è¿Ŀ": 3669,
      "ä¸Ģåº¦": 3670,
      "è¯ļ": 3671,
      "æĹ¥çļĦ": 3672,
      "è½°": 3673,
      "æ´Ĺ": 3674,
      "å¹¶æ²¡æľī": 3675,
      "è¿ĩåİ»": 3676,
      "æĪĺåĲİ": 3677,
      "æĻ¶": 3678,
      "äºĮå¹´": 3679,
      "éĩįçĤ¹": 3680,
      "æ®ĭ": 3681,
      "1993": 3682,
      "åħĪçĶŁ": 3683,
      "çŁ¥éģĵ": 3684,
      "èµĦæł¼": 3685,
      "è´¨éĩı": 3686,
      "éĻĲåĪ¶": 3687,
      "æ¨¡åŀĭ": 3688,
      "è´Ŀå°Ķ": 3689,
      "çĨĻ": 3690,
      "çģĮæľ¨": 3691,
      "è¦Ĩ": 3692,
      "Al": 3693,
      "ä¸įåĨį": 3694,
      "å½ĵå¹´": 3695,
      "ç³ĸ": 3696,
      "åŁºåĽł": 3697,
      "çĽ¸ä¼¼": 3698,
      "ãģĦ": 3699,
      "å®ŀçİ°": 3700,
      "å®ĺåĳĺ": 3701,
      "åĽ¾ä¹¦": 3702,
      "å¥½çļĦ": 3703,
      "èİ·å¾ĹäºĨ": 3704,
      "åįĩçº§": 3705,
      "ä¹Įæĭī": 3706,
      "çłģå¤´": 3707,
      "æĬµè¾¾": 3708,
      "Ġb": 3709,
      "åĽ½ä¼ļ": 3710,
      "æµĵ": 3711,
      "æĹ¥èµ·": 3712,
      "æĪĲçļĦ": 3713,
      "çİ°æĹ¶": 3714,
      "ä»»åĳ½": 3715,
      "èİİ": 3716,
      "èĳĽ": 3717,
      "åĶĩ": 3718,
      "åºĶè¯¥": 3719,
      "æĽ¾åľ¨": 3720,
      "åįłé¢Ĩ": 3721,
      "å´İ": 3722,
      "æĬķåħ¥": 3723,
      "è§£æĶ¾åĨĽ": 3724,
      "å®ı": 3725,
      "ä¼ı": 3726,
      "åĴĮå¹³": 3727,
      "éĺħ": 3728,
      "æĹ¥èĩ³": 3729,
      "æľĪçĲĥ": 3730,
      "å®¶æĹı": 3731,
      "æĭīåħĭ": 3732,
      "çº¿çļĦ": 3733,
      "äºĭä¸ļ": 3734,
      "èįīåİŁ": 3735,
      "å¨ĺ": 3736,
      "å¨±ä¹Ĳ": 3737,
      "å®¹æĺĵ": 3738,
      "åĩºçİ°åľ¨": 3739,
      "ç²¾ç¥ŀ": 3740,
      "é¬¼": 3741,
      "ï¼Įï¼īï¼Į": 3742,
      "å¤§æ¥¼": 3743,
      "å¥´": 3744,
      "æ±¤": 3745,
      "é«ĺä¸Ń": 3746,
      "èįīåĿ¡": 3747,
      "åŁºçĿ£": 3748,
      "æĶ¹ç¼ĸ": 3749,
      "éļıçĿĢ": 3750,
      "ell": 3751,
      "æĬķèµĦ": 3752,
      "è¶³çĲĥè¿ĲåĬ¨åĳĺ": 3753,
      "ç¡®å®ļ": 3754,
      "ä»·åĢ¼": 3755,
      "æĿĲæĸĻ": 3756,
      "218": 3757,
      "64": 3758,
      "ï¼Ł": 3759,
      "æĺĤ": 3760,
      "åįľ": 3761,
      "æĺ¯ç¾İåĽ½": 3762,
      "äººæķ°": 3763,
      "æĪĲäºĨ": 3764,
      "å±±åĮº": 3765,
      "èĬ¦": 3766,
      "é«ĺéĢŁ": 3767,
      "æ³ķå¸Ī": 3768,
      "é©¾": 3769,
      "å¸¸è§ģ": 3770,
      "éĥ½å¸Ĥ": 3771,
      "ç¨ĭå¼ı": 3772,
      "ç»´æĮģ": 3773,
      "è¿Ľè¡ĮäºĨ": 3774,
      "è®°èĢħ": 3775,
      "å¡ŀæĭī": 3776,
      "æī¹è¯Ħ": 3777,
      "éĶĢåĶ®": 3778,
      "èĳĹåĲįçļĦ": 3779,
      "çĺ¤": 3780,
      "æ¯ĽèĮĽç§ĳç¿łéĽĢ": 3781,
      "%ãĢĤ": 3782,
      "çļĦç¬¬ä¸Ģ": 3783,
      "çļĦæ·": 3784,
      "åĩºå¸Ń": 3785,
      "é«ĺçº§": 3786,
      "ä¸ľè¥¿": 3787,
      "éĥ½ä¼ļ": 3788,
      "è±Į": 3789,
      "åħĥéŁ³": 3790,
      "åı°æ¹¾å²Ľ": 3791,
      "æ»ļ": 3792,
      "å¤Ħäºİ": 3793,
      "150": 3794,
      "åį¡æĭī": 3795,
      "éļıèĳĹ": 3796,
      "ä¼Ĭæĸ¯": 3797,
      "äºīè®®": 3798,
      "å®ģå¤ı": 3799,
      "æ£®æŀĹ": 3800,
      "éĢįéģ¥èĽĽ": 3801,
      "Ch": 3802,
      "ab": 3803,
      "å¹ħ": 3804,
      "åľ¨ä¸ŃåĽ½": 3805,
      "åľ¨åı°æ¹¾": 3806,
      "ä¹³": 3807,
      "æĺ¯ä»¥": 3808,
      "å½»": 3809,
      "å¥ĳ": 3810,
      "å·¥åħ·": 3811,
      "ä¹Łè¢«": 3812,
      "èĤ¿": 3813,
      "ç¼ĵ": 3814,
      "åŁºéĩĳ": 3815,
      "æ°´å¹³": 3816,
      "çĥ·": 3817,
      "æ·ĳ": 3818,
      "çĬĢ": 3819,
      "èĻĳ": 3820,
      "å¯¼æ¼Ķ": 3821,
      "æĬ¥éģĵ": 3822,
      "è§£éĩĬ": 3823,
      "1988": 3824,
      "åĬŀåħ¬": 3825,
      "åħ«è§Ĵ": 3826,
      "åĩłä¸ª": 3827,
      "ity": 3828,
      "åĲ¸å¼ķ": 3829,
      "ç¾½æ¯ĽçĲĥ": 3830,
      "58": 3831,
      "åıĻ": 3832,
      "ä¸Ńå°Ĩ": 3833,
      "çīµ": 3834,
      "è¡Ķ": 3835,
      "è´º": 3836,
      "è½¦è¾Ĩ": 3837,
      "æŁĶ": 3838,
      "éĤĵ": 3839,
      "å®ŀæĸ½": 3840,
      "æİ¥è¿ĳ": 3841,
      "åıªèĥ½": 3842,
      "ä¸ĩåİĨ": 3843,
      "1989": 3844,
      "æŃ»åĲİ": 3845,
      "ç´łé¦¨": 3846,
      "é³Ħ": 3847,
      "å¹¿ä¸ľçŃīåľ°": 3848,
      "è½¯æĿ¡": 3849,
      "å°¤åħ¶": 3850,
      "åıĳåĬ¨æľº": 3851,
      "æĵįä½ľ": 3852,
      "æ¯ĽèĮĽç§ĳç¿łéĽĢå±ŀçļĦæ¤įçī©": 3853,
      "\">": 3854,
      "div": 3855,
      "Ġ-": 3856,
      "ãĢĪ": 3857,
      "ãĢī": 3858,
      "çļĦåİŁ": 3859,
      "å¹´è¢«": 3860,
      "ä¸ºåĨ¬éĿĴç§ĳåĨ¬éĿĴå±ŀçļĦæ¤įçī©": 3861,
      "åľ°ä½į": 3862,
      "æ²¼": 3863,
      "ç¬ĳ": 3864,
      "åıĳçĶµ": 3865,
      "ä½ľå®¶": 3866,
      "åħ¬åħĥ": 3867,
      "ä¹Łä¼ļ": 3868,
      "ï¼ļï¼īï¼Į": 3869,
      "çº¿è·¯": 3870,
      "æıĴ": 3871,
      "åįģä¸Ģ": 3872,
      "ä»İèĢĮ": 3873,
      "æĶ¹éĿ©": 3874,
      "ä½¿çĶ¨çļĦ": 3875,
      "ç»§æī¿": 3876,
      "åįĬå²Ľ": 3877,
      "ĠSt": 3878,
      "è¯Ħè®º": 3879,
      "èĥľåĪ©": 3880,
      "æĹħæ¸¸": 3881,
      "èģĶåĲĪåĽ½": 3882,
      "è®¨è®º": 3883,
      "æııè¿°": 3884,
      "éĢĿä¸ĸ": 3885,
      "èĤ¡ä»½æľīéĻĲåħ¬åı¸": 3886,
      "æľĭåıĭ": 3887,
      "41": 3888,
      "çļĦçłĶç©¶": 3889,
      "æĺ¯åĲ¦": 3890,
      "è¾©": 3891,
      "è¾Ĳ": 3892,
      "ä¸Ĭæľī": 3893,
      "æľºæ¢°": 3894,
      "é¢Ī": 3895,
      "ä¸ľæĸ¹": 3896,
      "åĨħéĥ¨": 3897,
      "çİĭæľĿ": 3898,
      "å·´è¥¿": 3899,
      "åĢ¾": 3900,
      "èµ·æĿ¥": 3901,
      "ãģĹ": 3902,
      "æ¶Ĥ": 3903,
      "èĳĹä½ľ": 3904,
      "èµĦæºĲ": 3905,
      "è§Ĥå¯Ł": 3906,
      "åĩĨå¤ĩ": 3907,
      "ess": 3908,
      "è¯ģæĺİ": 3909,
      "çĶµè§Ĩåı°": 3910,
      "çĶµè§Ĩåī§": 3911,
      "è¶ĬåįĹä»¥åıĬä¸ŃåĽ½å¤§éĻĨçļĦ": 3912,
      "éĺĶåı¶æŀĹä¸Ń": 3913,
      "åıĽ": 3914,
      "æĸĮ": 3915,
      "ä¸ŃéĹ´": 3916,
      "æĺ¯åı°æ¹¾": 3917,
      "å¼¥": 3918,
      "äººåľ¨": 3919,
      "æ°¨": 3920,
      "ä¼ļçļĦ": 3921,
      "èĥ¸": 3922,
      "è¥¿æĸ¹": 3923,
      "çĶ¨çļĦ": 3924,
      "çĶ¨ä½ľ": 3925,
      "è·ĸ": 3926,
      "æĿ¥è¯´": 3927,
      "æĿ¥æºĲ": 3928,
      "æĮĳ": 3929,
      "å°ıçļĦ": 3930,
      "è¿Ľä¸ĢæŃ¥": 3931,
      "è¯ŃçļĦ": 3932,
      "å²Ľå±¿": 3933,
      "ãģ¨": 3934,
      "è§Ĩä¸º": 3935,
      "æĪĲä¸ºäºĨ": 3936,
      "äº¦æľī": 3937,
      "åľŁèĢ³": 3938,
      "è§ĦåĪĻ": 3939,
      "éĩİè±Į": 3940,
      "ç¦ıå»ºçľģ": 3941,
      "æ³¨æĦı": 3942,
      "åľŁèĢ³åħ¶": 3943,
      "75": 3944,
      "åĪĢ": 3945,
      "å¹´æĿ¥": 3946,
      "åĨ¯": 3947,
      "åŃ¦ä½į": 3948,
      "çī©çĲĨ": 3949,
      "éĹª": 3950,
      "ä»ĸæĺ¯": 3951,
      "æĸ¯ç§ĳ": 3952,
      "åĪ°è¾¾": 3953,
      "æ¬£": 3954,
      "åĲĮæĦı": 3955,
      "èĩªè¡Į": 3956,
      "è¿ĩè·¯": 3957,
      "æĥĬ": 3958,
      "å¡ĺ": 3959,
      "æĹłçº¿": 3960,
      "å°±ä¼ļ": 3961,
      "åĸĢ": 3962,
      "å¡ŀåħĭæĸ¯": 3963,
      "çģ«æĺŁ": 3964,
      "all": 3965,
      "åįıè®®": 3966,
      "åį«æĺŁ": 3967,
      "æľĢåĲİä¸Ģ": 3968,
      "åŁĥå°Ķ": 3969,
      "åĤ¬": 3970,
      "æµ·åįĹçŃīåľ°": 3971,
      "é¸Ńè·ĸ": 3972,
      "éĩİè±Įè±Ĩ": 3973,
      "é¸Ńè·ĸèįī": 3974,
      "Ġ*": 3975,
      "åĽ½ç«ĭ": 3976,
      "æĺ¯æĮĩ": 3977,
      "å¤§å¤ļæķ°": 3978,
      "åľ°éĵģ": 3979,
      "ä¸Ĭæĺł": 3980,
      "çļĦæ´": 3981,
      "çŃīçŃī": 3982,
      "åįĹåĮĹ": 3983,
      "ä¹ĭä¸ĭ": 3984,
      "ä½ľæĽ²": 3985,
      "å°Ķå¾·": 3986,
      "æĸ¹æ¡Ī": 3987,
      "èĲ§": 3988,
      "å°Ĩä¼ļ": 3989,
      "æ¤įçī©åĽ¾": 3990,
      "æıĲé«ĺ": 3991,
      "ç»Łè®¡": 3992,
      "çĽ´èĩ³": 3993,
      "åıĸæ¶Ī": 3994,
      "æ²Ļæ²»": 3995,
      "èģĮåĬ¡": 3996,
      "åĲĽä¸»": 3997,
      "ç§ĺä¹¦": 3998,
      "ç¨³å®ļ": 3999,
      "æ¼«çĶ»": 4000,
      "å¥ĩå°Ķæ²Ļæ²»": 4001,
      "è¿ĩè·¯é»Ħ": 4002,
      "av": 4003,
      "ri": 4004,
      "Ġid": 4005,
      "æľīæķĪ": 4006,
      "æī°": 4007,
      "åī²": 4008,
      "è¥¿ä¼¯": 4009,
      "æĸ¯æĭī": 4010,
      "çī¹æ®Ĭ": 4011,
      "åĿĬ": 4012,
      "å¹¶æľª": 4013,
      "æĸĩç«ł": 4014,
      "å¤©ä¸»æķĻ": 4015,
      "åĪĹä¸º": 4016,
      "çĽ´å¾Ħ": 4017,
      "éľŀ": 4018,
      "åĪĨå¸ĥåľ¨ä¸ŃåĽ½å¤§éĻĨçļĦäºĳåįĹçŃīåľ°": 4019,
      "æĦŁæŁĵ": 4020,
      "ç»¿èī²": 4021,
      "æĿĤæľ¨": 4022,
      "ill": 4023,
      "å·¡åĽŀ": 4024,
      "å¤ªç©ºèĪ¹": 4025,
      "åĽ¾ä¹¦é¦Ĩ": 4026,
      "Ġ2": 4027,
      "ä»°": 4028,
      "ä¼į": 4029,
      "åıĳåĶ®": 4030,
      "ç©ºè¢Ń": 4031,
      "èº«ä½ĵ": 4032,
      "å°ĳå¥³": 4033,
      "åĽ½å®¶éĺŁ": 4034,
      "ä¸Ĭæµ·å¸Ĥ": 4035,
      "è´£ä»»": 4036,
      "åĪĨåĪ«æĺ¯": 4037,
      "åģľæŃ¢": 4038,
      "ï¼Īï¼Įï¼īï¼Į": 4039,
      "ER": 4040,
      "II": 4041,
      "é¤Ĳ": 4042,
      "æĪĴ": 4043,
      "åľ°éĿ¢": 4044,
      "ä¼ļåĳĺ": 4045,
      "èĥģ": 4046,
      "æµ·å²¸": 4047,
      "åħ¶ä½Ļ": 4048,
      "å¤ļé¡¹": 4049,
      "å¹¶éĿŀ": 4050,
      "çĽ®çļĦ": 4051,
      "å°ıåŃ¦": 4052,
      "è°¥": 4053,
      "æľªæĿ¥": 4054,
      "åĮĸåĲĪçī©": 4055,
      "ç¥Ń": 4056,
      "æķĻç»ĥ": 4057,
      "æŃ£åľ¨": 4058,
      "æ¼ł": 4059,
      "åıĹä¼¤": 4060,
      "ç¿Ķ": 4061,
      "æĿ¡çº¦": 4062,
      "æ¾³æ´²": 4063,
      "çľĭåĪ°": 4064,
      "åĸľæ¬¢": 4065,
      "çº½çº¦": 4066,
      "IS": 4067,
      "Su": 4068,
      "eb": 4069,
      "å¹´è½»": 4070,
      "ä¹ı": 4071,
      "ä¸ĢåĲĮ": 4072,
      "ä¸Ģå¸¦": 4073,
      "çĽĹ": 4074,
      "æĭ³": 4075,
      "ä»¥å¤ĸ": 4076,
      "æĸ¯é¡¿": 4077,
      "æĬĳ": 4078,
      "ä¸ĭåįĪ": 4079,
      "æŀĹåľº": 4080,
      "ä¹Łåľ¨": 4081,
      "åľºæ¯ĶèµĽ": 4082,
      "åĲĪçº¦": 4083,
      "æĺŁæľŁ": 4084,
      "èĮĤ": 4085,
      "ä¼łæĴŃ": 4086,
      "äº¤æµģ": 4087,
      "é¹°": 4088,
      "çĻ»éĻĨ": 4089,
      "æĤ¬": 4090,
      "1970": 4091,
      "æł¸èĥ½": 4092,
      "æºªè¾¹": 4093,
      "éĴĪå¯¹": 4094,
      "æłĸæģ¯äºİ": 4095,
      "çļĦæ¼Ķ": 4096,
      "å¥ĩå°Ķæ²Ļæ²»åı·": 4097,
      "Â°": 4098,
      "ĠåĴĮ": 4099,
      "çļĦåĲİ": 4100,
      "çļĦå¯¹": 4101,
      "å¹´åīį": 4102,
      "æĺ¯åĨ¬éĿĴç§ĳåĨ¬éĿĴå±ŀçļĦæ¤įçī©": 4103,
      "æī®": 4104,
      "åıĬåħ¶": 4105,
      "ä¸įè¶³": 4106,
      "åĩºæĿ¥": 4107,
      "è¢ĸ": 4108,
      "å£®": 4109,
      "æĥŁ": 4110,
      "åı¸èģĮ": 4111,
      "æĢ»ç«Ļ": 4112,
      "ç¿İ": 4113,
      "åĲĦåĽ½": 4114,
      "ç»´äºļ": 4115,
      "èħº": 4116,
      "äººæ°ĳæĶ¿åºľ": 4117,
      "å¤±è´¥": 4118,
      "æİĪäºĪ": 4119,
      "éĢĢå½¹": 4120,
      "éĨĽ": 4121,
      "æĿ°åħĭ": 4122,
      "ä»ªä»Ĺ": 4123,
      "ä¸ĭè¾ĸçļĦä¸Ģä¸ªä¹¡": 4124,
      "ä¼Ĭæĸ¯åħ°": 4125,
      "46": 4126,
      "49": 4127,
      "br": 4128,
      "çļĦä¸Ń": 4129,
      "çļĦé¦ĸ": 4130,
      "çļĦæĹ¶éĹ´": 4131,
      "å·§": 4132,
      "æĿĨ": 4133,
      "å¾ª": 4134,
      "çº¤": 4135,
      "æī¶": 4136,
      "ä¿±ä¹Ĳ": 4137,
      "èĬĴ": 4138,
      "èĤĸ": 4139,
      "å¹³åı°": 4140,
      "ä¸¤å²¸": 4141,
      "ç«Ļåİħ": 4142,
      "åĪĨå¸ĥäºİæĹ¥æľ¬": 4143,
      "æ°ĶåĢĻ": 4144,
      "å¯Ĩåº¦": 4145,
      "ç¼ĸåı·": 4146,
      "æŃ¥åħµ": 4147,
      "æ¡ĳç§ĳ": 4148,
      "æ£ĴçĲĥ": 4149,
      "39": 4150,
      "AT": 4151,
      "åĽ½éĺ²": 4152,
      "å¼ĺ": 4153,
      "æŃ§": 4154,
      "çī©è´¨": 4155,
      "çļĦæ¶": 4156,
      "æµ·éģĵ": 4157,
      "å·¥äºº": 4158,
      "çī¹çļĦ": 4159,
      "å²Ĺ": 4160,
      "è¿ĽæĶ»": 4161,
      "è¡¨æĺİ": 4162,
      "é©¬æĭī": 4163,
      "å¡ĳ": 4164,
      "å¤ªåŃĲ": 4165,
      "èĭıä¸¹": 4166,
      "èĪªçº¿": 4167,
      "åŃĹæ¯į": 4168,
      "åĨįåº¦": 4169,
      "çŁ¥åĲį": 4170,
      "çłĶç©¶æīĢ": 4171,
      "åİĨåı²ä¸Ĭ": 4172,
      "ĠAl": 4173,
      "çĳŀåħ¸": 4174,
      "çŃ¾çº¦": 4175,
      "Ġï¼Į": 4176,
      "ä»¿": 4177,
      "ä¸Ńéĥ¨": 4178,
      "ç§Ĵ": 4179,
      "æľīäºº": 4180,
      "æľ¬ä½ľ": 4181,
      "æľ¬èº«": 4182,
      "ä¸»é¢ĺ": 4183,
      "è¿Ļæ¬¡": 4184,
      "ç»ıåħ¸": 4185,
      "ant": 4186,
      "ine": 4187,
      "ç½ĳçĲĥ": 4188,
      "åı¦ä¸Ģä¸ª": 4189,
      "å´Ķ": 4190,
      "åĮ»åŃ¦": 4191,
      "æ¬¢è¿İ": 4192,
      "çĹĩçĬ¶": 4193,
      "åĽºå®ļ": 4194,
      "åı¬å¼Ģ": 4195,
      "å®īæıĲé¡¿åı·": 4196,
      "å¦ĩå¥³": 4197,
      "å´ĸè±Ĩ": 4198,
      "è¿ħéĢŁ": 4199,
      "85": 4200,
      "AS": 4201,
      "ge": 4202,
      "è¹": 4203,
      "ä¸§": 4204,
      "æĹ¢": 4205,
      "çī¡": 4206,
      "ä»¥åīį": 4207,
      "èµ¶": 4208,
      "å¤ļç§į": 4209,
      "ç¬¬åħŃ": 4210,
      "æľĢå¤ļ": 4211,
      "è¶£": 4212,
      "çĶµè¯Ŀ": 4213,
      "å¤ĸäº¤": 4214,
      "èĴĭ": 4215,
      "æľ¨åħ°": 4216,
      "ç»´å°Ķ": 4217,
      "ĠCh": 4218,
      "èľ¡": 4219,
      "ç®Ģåįķ": 4220,
      "èķĬ": 4221,
      "hans": 4222,
      "hk": 4223,
      "åĲ»": 4224,
      "å®Ļ": 4225,
      "å¹´åºķ": 4226,
      "è¯ŀ": 4227,
      "èµł": 4228,
      "åĲįåįķ": 4229,
      "è¾»": 4230,
      "éķ¿åº¦": 4231,
      "çļĦæģ": 4232,
      "éĺŁçļĦ": 4233,
      "æĭīä¸ģ": 4234,
      "çĦ¦": 4235,
      "åı¶åĨ¬éĿĴ": 4236,
      "éĴ¦": 4237,
      "ore": 4238,
      "æĳĩ": 4239,
      "åĪĽç«ĭ": 4240,
      "å²ģæĹ¶": 4241,
      "èĪªç©ºåħ¬åı¸": 4242,
      "æī¹åĩĨ": 4243,
      "æĵİ": 4244,
      "å»¶ä¼¸": 4245,
      "è´µå·ŀçŃīåľ°": 4246,
      "çĸıæŀĹä¸Ń": 4247,
      "éģ¿åħį": 4248,
      "å¦»åŃĲ": 4249,
      "42": 4250,
      "ob": 4251,
      "¨çŁ³": 4252,
      "äºŃ": 4253,
      "åĽ½è¯Ń": 4254,
      "ä¸ĢæĿ¡": 4255,
      "æĺ¯é¦Ļæ¸¯": 4256,
      "è¥¿éĩĮ": 4257,
      "æ¸ł": 4258,
      "çī¹å¾ģ": 4259,
      "å°Ķæĸ¯": 4260,
      "åĬ¨åĬĽ": 4261,
      "åħ¥ä¾µ": 4262,
      "å¹³è¡¡": 4263,
      "åįģåħ«": 4264,
      "æ¯Ķä¾ĭ": 4265,
      "çĭŃ": 4266,
      "æ²³è°·": 4267,
      "æīĵåĩ»": 4268,
      "æł¡éķ¿": 4269,
      "åį°å°¼": 4270,
      "å¼ºçĥĪ": 4271,
      "ens": 4272,
      "å¥¥å°Ķ": 4273,
      "ice": 4274,
      "å¨ģèĥģ": 4275,
      "çķĻåľ¨": 4276,
      "é¢Ħè®¡": 4277,
      "èĢĥèĻĳ": 4278,
      "éĴŁèĬ±": 4279,
      "åĲ¯çĶ¨": 4280,
      "æ¨±æ¡ĥ": 4281,
      "åĹ£": 4282,
      "è¥¿ä¼¯åĪ©äºļ": 4283,
      "\"ï¼Į": 4284,
      "61": 4285,
      "67": 4286,
      "çļĦä¸ī": 4287,
      "æĺ¯æĹ¥æľ¬": 4288,
      "åľ°ä¸Ĭ": 4289,
      "åľ°åĪ©": 4290,
      "åī©": 4291,
      "æĶ¿ä¿¡": 4292,
      "éĻ¢éķ¿": 4293,
      "èĮħ": 4294,
      "ç½ĳè·¯": 4295,
      "çĵ£": 4296,
      "åıĮæīĵ": 4297,
      "ç»Īäºİ": 4298,
      "çĻ¾ä¸ĩ": 4299,
      "èĿī": 4300,
      "è¯Ħä»·": 4301,
      "çħ¤": 4302,
      "åħ¬å¼ĢèµĽ": 4303,
      "çļĦè®¾è®¡": 4304,
      "ä¸Ģå®ļ": 4305,
      "æ°Ł": 4306,
      "æ³¡": 4307,
      "åįĹéĿŀ": 4308,
      "æĢĴ": 4309,
      "èĬŃ": 4310,
      "é«ĺçļĦ": 4311,
      "åĿİ": 4312,
      "å£¤": 4313,
      "âĢĿãĢģ": 4314,
      "çł¾": 4315,
      "å£«åħµ": 4316,
      "è¾¾èµĸ": 4317,
      "èĳ¡": 4318,
      "è¿ĲçĶ¨": 4319,
      "éĺ¿åħĭ": 4320,
      "ç»ĵå©ļ": 4321,
      "çĬ¹": 4322,
      "å¸¦æľī": 4323,
      "åĳ¨åĽ´": 4324,
      "æĶ¶å½ķ": 4325,
      "æķĪæŀľ": 4326,
      "ç§»æ°ĳ": 4327,
      "èŀº": 4328,
      "åĤ¨": 4329,
      "ç¬¦åı·": 4330,
      "åĢĻéĢīäºº": 4331,
      "çī¡ä¸¹": 4332,
      "43": 4333,
      "ç°": 4334,
      "æĹ±": 4335,
      "æĹº": 4336,
      "ä¸Ńäºļ": 4337,
      "å¼¯": 4338,
      "è¯¢": 4339,
      "çĶŁæĪĲ": 4340,
      "çİĦ": 4341,
      "èĭ¯": 4342,
      "åı°è§Ĩ": 4343,
      "åĮĹç¾İ": 4344,
      "äºļåİĨ": 4345,
      "ä¹Łåı¯ä»¥": 4346,
      "å¼ķæĵİ": 4347,
      "çĶµåı°": 4348,
      "éĩĮçļĦ": 4349,
      "çĲĨäºĭ": 4350,
      "ç¨»": 4351,
      "æķĻåŃ¦": 4352,
      "çłĤ": 4353,
      "åŁİéķĩ": 4354,
      "ç¡ķ": 4355,
      "å°ĳæķ°": 4356,
      "è¾¹ç¼ĺ": 4357,
      "ä»¥åıĬä¸ŃåĽ½å¤§éĻĨçļĦè¥¿èĹıçŃīåľ°": 4358,
      "140": 4359,
      "1986": 4360,
      "1987": 4361,
      "èħ¹èĽĽ": 4362,
      "æĬķç¥¨": 4363,
      "1958": 4364,
      "åĨ²çªģ": 4365,
      "è¢Ńåĩ»": 4366,
      "æ²Łè¾¹": 4367,
      "ç¡¬æ£ĺ": 4368,
      "èĨľ": 4369,
      "çļĦæĢ»": 4370,
      "åħģè®¸": 4371,
      "èĿĩèĻİ": 4372,
      "è¾»æĶ¿ä¿¡": 4373,
      "%ï¼Į": 4374,
      "78": 4375,
      "IE": 4376,
      "ne": 4377,
      "ĠY": 4378,
      "ä¸ºä¸Ģ": 4379,
      "åĩĢ": 4380,
      "å½Ń": 4381,
      "æľĪèĩ³": 4382,
      "è¢ĭ": 4383,
      "æĽ¹": 4384,
      "æ±¡": 4385,
      "èįŁ": 4386,
      "åĮĹæµ·éģĵ": 4387,
      "å¾Ĺä»¥": 4388,
      "ç»ıåīį": 4389,
      "èĤ¤": 4390,
      "å®īå¾·": 4391,
      "åİŁåĲį": 4392,
      "ç½Ĺå¹¿": 4393,
      "é²į": 4394,
      "èĴ¸": 4395,
      "1981": 4396,
      "å®Įæķ´": 4397,
      "ãĥ¼": 4398,
      "èĥĮæĻ¯": 4399,
      "åħįè´¹": 4400,
      "åĲ¸æĶ¶": 4401,
      "æī©å¤§": 4402,
      "å®ĩå®Ļ": 4403,
      "èĳ£äºĭ": 4404,
      "æĺŃåĴĮ": 4405,
      "ä¼°è®¡": 4406,
      "..": 4407,
      "66": 4408,
      "95": 4409,
      "nd": 4410,
      "ud": 4411,
      "ä¸²": 4412,
      "çļĦéĩį": 4413,
      "å°Ŀ": 4414,
      "èĢĢ": 4415,
      "èĥİ": 4416,
      "è´«": 4417,
      "è¢ģ": 4418,
      "å¸ĥæĭī": 4419,
      "åĨĽå®ĺ": 4420,
      "æ°ĳéĹ´": 4421,
      "æŀĹå¸Į": 4422,
      "äºĭå®ŀ": 4423,
      "ç¥Ŀ": 4424,
      "èĽĩ": 4425,
      "åħĥç´ł": 4426,
      "èĦĬ": 4427,
      "ç»´ä¹Ł": 4428,
      "æŃĮèĪŀ": 4429,
      "æ³¢éŁ³": 4430,
      "ç¢§": 4431,
      "ç¢İ": 4432,
      "è°ĥæķ´": 4433,
      "åĽŃåĮº": 4434,
      "åı¯èĥ½æĺ¯": 4435,
      "è¯ģå®ŀ": 4436,
      "ç§»åĬ¨": 4437,
      "æī¿è®¤": 4438,
      "èĪŀåı°": 4439,
      "è´Ńä¹°": 4440,
      "ä¸°å¯Į": 4441,
      "ä»Ģä¹Ī": 4442,
      "åĨ·æĿī": 4443,
      "ä¸Ńåħ±ä¸Ńå¤®": 4444,
      "æĸĩçī©ä¿ĿæĬ¤": 4445,
      "ct": 4446,
      "og": 4447,
      "tw": 4448,
      "Ã©": 4449,
      "çį": 4450,
      "çļĦéĹ®é¢ĺ": 4451,
      "ä»²": 4452,
      "åĲ¨": 4453,
      "ä¸Ńæľī": 4454,
      "æµ®": 4455,
      "éĥģ": 4456,
      "ä¸ŃåĽ½çļĦ": 4457,
      "ç±³å°Ķ": 4458,
      "å·¥åİĤ": 4459,
      "èĢĮæĺ¯": 4460,
      "ä¸ĭåĪĹ": 4461,
      "èĭŀ": 4462,
      "é¢ĩ": 4463,
      "ä¾į": 4464,
      "è°±": 4465,
      "å®īæİĴ": 4466,
      "äº§çī©": 4467,
      "çĪª": 4468,
      "è¿Ĳä¼ļ": 4469,
      "ä»İäºĭ": 4470,
      "æĢ»éĥ¨": 4471,
      "äºĳæĿī": 4472,
      "çŁ³æ²¹": 4473,
      "ç¿Į": 4474,
      "æĽ´åĬł": 4475,
      "ä¿®æĶ¹": 4476,
      "æĻ®éģį": 4477,
      "çĬ¶åĨµ": 4478,
      "çģ«å±±": 4479,
      "åħŃå¹´": 4480,
      "é£ŁçĶ¨": 4481,
      "æĪĲç«ĭäºİ": 4482,
      "å«Į": 4483,
      "ä¸ĭè¾ĸä»¥ä¸ĭ": 4484,
      "è½°çĤ¸": 4485,
      "ç½Ĺå¹¿æĸĮ": 4486,
      "æŀĹå¸Įç¿İ": 4487,
      "ç»´ä¹Łçº³": 4488,
      ")ãĢģ": 4489,
      "ain": 4490,
      "çļĦæĸ¹å¼ı": 4491,
      "å®Ľ": 4492,
      "ä»¥ä¸ĬçļĦ": 4493,
      "æ°¯": 4494,
      "æŀ£": 4495,
      "åĪĨç¦»": 4496,
      "åĲİèĢħ": 4497,
      "è´¾": 4498,
      "ä¸įå¾Ĺ": 4499,
      "è¥¿æ¹ĸ": 4500,
      "ä¿ĺ": 4501,
      "çī¹è®¸": 4502,
      "èĢĮè¢«": 4503,
      "èģĺ": 4504,
      "æĮĤ": 4505,
      "å¸ĤåĮº": 4506,
      "åĽłç´ł": 4507,
      "èĥ½æºĲ": 4508,
      "åħ¥çĲĥ": 4509,
      "ç§°ä½ľ": 4510,
      "çĽ¸ä¿¡": 4511,
      "ç¿ģ": 4512,
      "ä¼łè¯´": 4513,
      "é¢Ĩè¢ĸ": 4514,
      "è§Ĥæµĭ": 4515,
      "è§Ĥèµı": 4516,
      "æĿĥåĬĽ": 4517,
      "ç¢±": 4518,
      "ç¼ĸè¾ĳ": 4519,
      "æŀªæľº": 4520,
      "1945": 4521,
      "æīĢæľīçļĦ": 4522,
      "æĹħå®¢": 4523,
      "çĶĺèĤĥçŃīåľ°": 4524,
      "å¸¸ç»¿éĺĶåı¶æŀĹä¸Ń": 4525,
      "çļĦæĮĩ": 4526,
      "åĽ½åĬ¡éĻ¢": 4527,
      "æĩ": 4528,
      "åĽĬ": 4529,
      "ä¸ºåı°æ¹¾": 4530,
      "éĻ¨çŁ³": 4531,
      "æľĪåĪĿ": 4532,
      "çĲ³": 4533,
      "1950": 4534,
      "ä¸įåı¯": 4535,
      "è¥¿åĵ¥": 4536,
      "å¿Ļ": 4537,
      "æ¬²": 4538,
      "èĢĮæĪĲ": 4539,
      "ãĢĭï¼Īï¼ī": 4540,
      "æĿ¥åĪ°": 4541,
      "ä¸īè§Ĵ": 4542,
      "å°ıç»Ħ": 4543,
      "å¦ĤæŃ¤": 4544,
      "èĹ»": 4545,
      "ç»ĵåĲĪ": 4546,
      "è¯´æ³ķ": 4547,
      "160": 4548,
      "éĵģéģĵ": 4549,
      "å¾Īå¿«": 4550,
      "èħĲ": 4551,
      "é£Łçī©": 4552,
      "å½ĵæĹ¶çļĦ": 4553,
      "å²ģçļĦ": 4554,
      "ä¹Ŀé¾Ļ": 4555,
      "è¯ķåĽ¾": 4556,
      "éĤ£äºĽ": 4557,
      "æ»¡è¶³": 4558,
      "åĨľä¸ļ": 4559,
      "åĬ¿åĬĽ": 4560,
      "åİĭåĬĽ": 4561,
      "éªĳå£«": 4562,
      "æ¯ģçģŃ": 4563,
      "Ġde": 4564,
      "çļĦæ¸¸": 4565,
      "ä¸ŃåĽ½äººæ°ĳè§£æĶ¾åĨĽ": 4566,
      "é©¾é©¶": 4567,
      "æ²¼æ³½": 4568,
      "æ¡ĳç§ĳæ¦ķ": 4569,
      "120": 4570,
      "ht": 4571,
      "ue": 4572,
      "çļĦéĩįè¦ģ": 4573,
      "åįĴ": 4574,
      "åľ°åĽ¾": 4575,
      "å¾ĹçŁ¥": 4576,
      "éĺŁéķ¿": 4577,
      "èĤº": 4578,
      "ç¤ģ": 4579,
      "èĲĦ": 4580,
      "åİŁå§ĭ": 4581,
      "æģĭ": 4582,
      "åħ³éĹŃ": 4583,
      "é¦ĸåħĪ": 4584,
      "ä¿ĿéĻ©": 4585,
      "æ²³æµģ": 4586,
      "èĬĤåº¦": 4587,
      "è§£æķ£": 4588,
      "è¾ĥä¸º": 4589,
      "1982": 4590,
      "é¸¿": 4591,
      "ç»ĻäºĪ": 4592,
      "ä¼¯çī¹": 4593,
      "èīºäºº": 4594,
      "åħ¸ç¤¼": 4595,
      "åĺ´": 4596,
      "èľľ": 4597,
      "èĸĦ": 4598,
      "çĳŀå£«": 4599,
      "é¥°æ¼Ķ": 4600,
      "ç¼ºä¹ı": 4601,
      "æĪªèĩ³": 4602,
      "å®ŀéĻħä¸Ĭ": 4603,
      "ä¿±ä¹Ĳéĥ¨": 4604,
      "èĳ¡èĲĦ": 4605,
      "äºļåİĨå±±": 4606,
      "æĸĩçī©ä¿ĿæĬ¤åįķä½į": 4607,
      "51": 4608,
      "ian": 4609,
      "ä»ĵ": 4610,
      "åľ¨æĹ¥æľ¬": 4611,
      "åĮĪ": 4612,
      "éĢ¢": 4613,
      "æŀ¢": 4614,
      "çļĦæĽ": 4615,
      "å±±èĦī": 4616,
      "åıĳåĩº": 4617,
      "å¸ĥé²ģ": 4618,
      "ä½ľåĩº": 4619,
      "èĩ³å°ĳ": 4620,
      "å¹¶ä»¥": 4621,
      "ç»ıçĲĨ": 4622,
      "æĶ¿æĿĥ": 4623,
      "åĲĪæ¬¢": 4624,
      "ç¦Ħ": 4625,
      "é©¬å°Ķ": 4626,
      "ç©ºä¸Ń": 4627,
      "æİ¥è§¦": 4628,
      "åıĤèµĽ": 4629,
      "ç²¤": 4630,
      "ç²Ĵ": 4631,
      "é£İæļ´": 4632,
      "æ¸ħçľŁ": 4633,
      "åĳ¨å¹´": 4634,
      "æĶ¶åħ¥": 4635,
      "éļıåį³": 4636,
      "å¯ĨæŀĹä¸Ń": 4637,
      "åĦ¿ç«¥": 4638,
      "çİĩé¢Ĩ": 4639,
      "éħįåĲĪ": 4640,
      "ä¾ĿçĦ¶": 4641,
      "æĻļä¸Ĭ": 4642,
      "ç¹ģæ®ĸ": 4643,
      "èµ¤éģĵ": 4644,
      "å¢¨è¥¿åĵ¥": 4645,
      "èĬ¦èįŁ": 4646,
      "ff": 4647,
      "ĠU": 4648,
      "ä¸ºèĶ·èĸĩç§ĳ": 4649,
      "è¡°": 4650,
      "çĶŁåĳ½": 4651,
      "å¿į": 4652,
      "èĢĮä¸į": 4653,
      "åı°ä¸Ń": 4654,
      "çŁ®": 4655,
      "åĲĮçĽŁ": 4656,
      "æĸĩåŃĹ": 4657,
      "è°ĵ": 4658,
      "èĤ¥": 4659,
      "æĪĺå£«": 4660,
      "åı·æľºè½¦": 4661,
      "éĩĳèŀį": 4662,
      "å¹¿ä¹ī": 4663,
      "çİĭåĲİ": 4664,
      "æŃ£å¸¸": 4665,
      "èĭ±éĩĮ": 4666,
      "è¿Ĳä½ľ": 4667,
      "å¡«": 4668,
      "åħ³æ³¨": 4669,
      "æĢ»äººåı£": 4670,
      "èµ·ä¹ī": 4671,
      "å®ĥæĺ¯": 4672,
      "æĽ´å¤ļ": 4673,
      "åłĨ": 4674,
      "è¿ŀè½½": 4675,
      "ä¸ĸçķĮå¤§æĪĺ": 4676,
      "æħ§": 4677,
      "ä¸¹éº¦": 4678,
      "æĴŃæĶ¾": 4679,
      "çĶ²åŁº": 4680,
      "æīįèĥ½": 4681,
      "éľĢæ±Ĥ": 4682,
      "æĿĢæŃ»": 4683,
      "çĹħæ¯Ĵ": 4684,
      "è¯ķéªĮ": 4685,
      "éĻįä½İ": 4686,
      "æ°¸ä¹Ĳ": 4687,
      "ç»ĵæĿŁåĲİ": 4688,
      "èķī": 4689,
      "äº¿åħĥ": 4690,
      "æįŁå¤±": 4691,
      "è´¡çĮ®": 4692,
      "æªĢ": 4693,
      "æ¡ĳç§ĳæ¦ķå±ŀçļĦæ¤įçī©": 4694,
      "110": 4695,
      "77": 4696,
      ";}-": 4697,
      "åįĳ": 4698,
      "å¤§ä¼Ĺ": 4699,
      "åľ°çļĦ": 4700,
      "æī«": 4701,
      "ä»¥ä¸º": 4702,
      "å¯Ħ": 4703,
      "è´´": 4704,
      "ä¹ĭåŃĲ": 4705,
      "å²³": 4706,
      "çİ°åľº": 4707,
      "ä¸ļåĬ¡": 4708,
      "éĵº": 4709,
      "åįģå¹´": 4710,
      "æĢ»çĿ£": 4711,
      "åı¯ä»¥åľ¨": 4712,
      "å¥³è´ŀ": 4713,
      "æľ¨çĬĢ": 4714,
      "åı¤ä»£": 4715,
      "ä¸ĵéĹ¨": 4716,
      "åıĺæĪĲ": 4717,
      "è½¬ä¼ļ": 4718,
      "å¥ĸé¡¹": 4719,
      "æ¯ıæĹ¥": 4720,
      "çŁ¥è¯Ĩ": 4721,
      "è¶Ĭåī§": 4722,
      "å¥¥åľ°åĪ©": 4723,
      "çĪ±å°Ķ": 4724,
      "ç§¯æŀģ": 4725,
      "åĪĨå¸ĥåľ¨ä¸ŃåĽ½å¤§éĻĨçļĦåĽĽå·Ŀ": 4726,
      "èŃ¦åį«": 4727,
      "åıĤåĬłäºĨ": 4728,
      "çīłä»¬çļĦ": 4729,
      "éĤ»è¿ĳ": 4730,
      "çĽ¸å¯¹è®º": 4731,
      "ä¸ĭè¾ĸä»¥ä¸ĭåľ°åĮº": 4732,
      "çī¹è®¸ç»ıèĲ¥": 4733,
      "æ¸ħçľŁå¯º": 4734,
      "OS": 4735,
      "Ġ1": 4736,
      "åľ¨åħ¶": 4737,
      "ç»³": 4738,
      "æľīä¸Ģä¸ª": 4739,
      "åŃ¦æľ¯": 4740,
      "çŃĴ": 4741,
      "éķ¿çº¦": 4742,
      "ä¸įæ»¡": 4743,
      "çļĦæı": 4744,
      "åħ¶å®ŀ": 4745,
      "èīĩ": 4746,
      "å¯¹æŃ¤": 4747,
      "ä»£çĲĨ": 4748,
      "ç¦¾": 4749,
      "åĪĹæĸ¯": 4750,
      "å²Ľä¸Ĭ": 4751,
      "ãģ¦": 4752,
      "å°±è¯»": 4753,
      "çº§è¡ĮæĶ¿": 4754,
      "ina": 4755,
      "åĲĦèĩª": 4756,
      "ä¸ĩåħĥ": 4757,
      "ä¸ĵå®¶": 4758,
      "åĸī": 4759,
      "ç®¡è¾ĸ": 4760,
      "åĲīå°Ķ": 4761,
      "éĩĩåıĸ": 4762,
      "è¯įæł¹": 4763,
      "æ¯ĶèµĽä¸Ń": 4764,
      "æ¤Ń": 4765,
      "è¸ª": 4766,
      "ç«ŀäºī": 4767,
      "è¢«è®¤ä¸ºæĺ¯": 4768,
      "çīµå¼ķ": 4769,
      "å´ĸè±ĨèĹ¤": 4770,
      "âĢĿãĢģâĢľ": 4771,
      "æľ¨çĬĢç§ĳ": 4772,
      "1000": 4773,
      "Ġin": 4774,
      "çļĦåĽ½å®¶": 4775,
      "ä¸ºæŃ¢": 4776,
      "ä¸ºæĬ¥æĺ¥èĬ±ç§ĳçıįçıłèıľå±ŀçļĦæ¤įçī©": 4777,
      "ä¸Ģåľº": 4778,
      "ä¼Ļ": 4779,
      "åĨĴ": 4780,
      "èĢĲ": 4781,
      "çļĦæ¬": 4782,
      "çļĦæ±": 4783,
      "è¥¿æ´ĭ": 4784,
      "æµ·æ´ĭ": 4785,
      "æĬ«": 4786,
      "æİª": 4787,
      "çī¹èī²": 4788,
      "ä¸»æ¼Ķ": 4789,
      "å¹¶å°Ĩ": 4790,
      "èģĶç³»": 4791,
      "ä¸¤æ¬¡": 4792,
      "åįģä¹Ŀ": 4793,
      "åŀĭåı·": 4794,
      "éĤ¨": 4795,
      "æ¢µ": 4796,
      "è®®éĻ¢": 4797,
      "åĳ½åĲįä¸º": 4798,
      "ç¥ŀç§ĺ": 4799,
      "æĶ¾å¼ĥ": 4800,
      "æŀĦæĪĲ": 4801,
      "ç»ĻäºĨ": 4802,
      "è®¾è®¡å¸Ī": 4803,
      "å¼¹åĮ£": 4804,
      "èŁ¹èĽĽå±ŀçļĦåĬ¨çī©": 4805,
      "çĶ·æĢ§": 4806,
      "1960": 4807,
      "ä¾Ŀæį®": 4808,
      "ä¸¾è¡ĮçļĦ": 4809,
      "ä»ªå¼ı": 4810,
      "çĶŁæ´»äºİ": 4811,
      "ack": 4812,
      "ä¾µçķ¥": 4813,
      "æĴ¤éĶĢ": 4814,
      "èĬĤåº¦ä½¿": 4815,
      "99": 4816,
      "AR": 4817,
      "ah": 4818,
      "gle": 4819,
      "ph": 4820,
      "te": 4821,
      "Ġf": 4822,
      "Ġand": 4823,
      "åıĶ": 4824,
      "å¹´åĪĿ": 4825,
      "å¹´é¾Ħ": 4826,
      "åĽ½éģĵ": 4827,
      "ä¸Ģä¸ĸ": 4828,
      "æłĴåŃĲ": 4829,
      "èĢĹ": 4830,
      "æ³³": 4831,
      "åĩºèº«": 4832,
      "æ±ª": 4833,
      "æľ¬çº¿": 4834,
      "ä¸»åľº": 4835,
      "æĸ¹çļĦ": 4836,
      "å¯¹æīĭ": 4837,
      "æ³ķåħ°": 4838,
      "æ°ĳä¼Ĺ": 4839,
      "æĮ¯": 4840,
      "å¸Ĥéķ¿": 4841,
      "çİ°ä»»": 4842,
      "è¿Ľå£«": 4843,
      "è¡¨è¾¾": 4844,
      "åĽĽä¸ª": 4845,
      "éĩįå»º": 4846,
      "äºĭæķħ": 4847,
      "ç¨Ģ": 4848,
      "èĳµ": 4849,
      "çĭ¼": 4850,
      "ãģĮ": 4851,
      "æ¶µ": 4852,
      "é¦Ļèįī": 4853,
      "æ»ĩ": 4854,
      "åħīç»ª": 4855,
      "ong": 4856,
      "èµĦè®¯": 4857,
      "ç¦»åŃĲ": 4858,
      "åĪĽéĢł": 4859,
      "åĥµ": 4860,
      "å°Ħåĩ»": 4861,
      "è´µæĹı": 4862,
      "æķ´ä½ĵ": 4863,
      "åį°åº¦å°¼è¥¿äºļ": 4864,
      "çªģçĦ¶": 4865,
      "èĵĿèī²": 4866,
      "æ¹¿åľ°": 4867,
      "é«ĺå±±èįīçĶ¸": 4868,
      "å½¼å¾Ĺ": 4869,
      "æŁ´æ²¹": 4870,
      "53": 4871,
      "57": 4872,
      "man": 4873,
      "oh": 4874,
      "ran": 4875,
      "éĦ": 4876,
      "åıī": 4877,
      "å±¯": 4878,
      "å¤§å¥ĸ": 4879,
      "æĭĲ": 4880,
      "çŃīçº§": 4881,
      "ç¬¬ä¸ĥ": 4882,
      "ä¸ĭéĻį": 4883,
      "ä¾ł": 4884,
      "äºļåĨĽ": 4885,
      "å¸Ĥæ°ĳ": 4886,
      "ç»ıåİĨ": 4887,
      "å°ıåŀĭ": 4888,
      "æĻ¨": 4889,
      "äºĮäºº": 4890,
      "ä½ĨçĶ±äºİ": 4891,
      "æı¡": 4892,
      "éĩĳåĪļ": 4893,
      "ç¨¿": 4894,
      "æĢ§è´¨": 4895,
      "å·´èµ«": 4896,
      "å½¢ç§ĳ": 4897,
      "çŁ³çģ°": 4898,
      "æĦıä¸º": 4899,
      "166": 4900,
      "åĨ³è®®": 4901,
      "çļĦä¸Ģåº§": 4902,
      "åĳ¨æľŁ": 4903,
      "ä¸ĸçķĮæĿ¯": 4904,
      "çĳļ": 4905,
      "å°Ħåħ¥": 4906,
      "ï¼īãĢģãĢĬ": 4907,
      "é£ŁæĢ§": 4908,
      "æĹħè¡Į": 4909,
      "çŃ¾ç½²": 4910,
      "çıĬçĳļ": 4911,
      "åĶĩå½¢ç§ĳ": 4912,
      "åĤ¬åĮĸ": 4913,
      "å¤ļé¡¹å¼ı": 4914,
      "çļĦä¸¤": 4915,
      "æĺ¯ä¸ĭè¾ĸçļĦä¸Ģä¸ªä¹¡": 4916,
      "äººå¤§": 4917,
      "æĭĵ": 4918,
      "âĢĻ": 4919,
      "æĪĲéĥ½": 4920,
      "æĪĲçĨŁ": 4921,
      "ï¼ļ'": 4922,
      "ä¸İåħ¶": 4923,
      "ç§ĳçļĦ": 4924,
      "å¿Ĩ": 4925,
      "æľ¬ç§ĳ": 4926,
      "ä¸ĭäºĨ": 4927,
      "èĭ»": 4928,
      "å»Ĭ": 4929,
      "åĲĮä¸Ģ": 4930,
      "åĬłå¼º": 4931,
      "å®ļä¸º": 4932,
      "éĩįéŁ³": 4933,
      "èĬ±åĽŃ": 4934,
      "åħ°åį¡": 4935,
      "æıĲåĲį": 4936,
      "æĹłäºº": 4937,
      "ãģ§": 4938,
      "èĦı": 4939,
      "éķĩçº§è¡ĮæĶ¿": 4940,
      "ç±»åŀĭ": 4941,
      "æĿ¡çº¹": 4942,
      "å±ķç¤º": 4943,
      "ç¦ıå·ŀ": 4944,
      "çĿ¡": 4945,
      "ä»¥åıĬä¸ŃåĽ½å¤§éĻĨçļĦäºĳåįĹçŃīåľ°": 4946,
      "ä¸»è¦ģçļĦ": 4947,
      "æĪıåī§": 4948,
      "çİ¯çĬ¶": 4949,
      "èĲ½åı¶": 4950,
      "åħĭæĸ¯åĿ¦": 4951,
      "éĢĤåĲĪ": 4952,
      "æ¯ķä¸ļäºİ": 4953,
      "ĠIn": 4954,
      "ä¸»æĮģäºº": 4955,
      "æĢªåħ½": 4956,
      "è°¥åı·": 4957,
      "æĺ¯ä¸ĭè¾ĸçļĦä¸Ģä¸ªä¹¡éķĩçº§è¡ĮæĶ¿": 4958,
      "æĺ¯ä¸ĭè¾ĸçļĦä¸Ģä¸ªä¹¡éķĩçº§è¡ĮæĶ¿åįķä½į": 4959,
      "56": 4960,
      "TC": 4961,
      "æĸ¤": 4962,
      "åº¶": 4963,
      "æłª": 4964,
      "å¥Ķ": 4965,
      "åĩºæĪĺ": 4966,
      "æµ·åŁŁ": 4967,
      "ä¿Ĭ": 4968,
      "ä¸ĭæĿ¥": 4969,
      "åĨĽåĽ¢": 4970,
      "èĩªèº«": 4971,
      "ç¾İæľ¯": 4972,
      "çİ°ä»Ĭ": 4973,
      "ä½ĵç³»": 4974,
      "éĩįåĬĽ": 4975,
      "éĩįéĩı": 4976,
      "çĤ¼": 4977,
      "åŁºéĥ¨": 4978,
      "é»Ħéĩĳ": 4979,
      "èı©": 4980,
      "é¢ĨåľŁ": 4981,
      "åıĺå¾Ĺ": 4982,
      "äº¦æĺ¯": 4983,
      "æ¬§è¿Ī": 4984,
      "æĻ®é²ģ": 4985,
      "èĲ¥è¿Ĳ": 4986,
      "æŀªç®¡": 4987,
      "ä½Ľç½Ĺ": 4988,
      "è¡ĮæĶ¿æĿĳ": 4989,
      "çļ®èĤ¤": 4990,
      "1974": 4991,
      "ä½ıå®ħ": 4992,
      "æµĻæ±Łçľģ": 4993,
      "èĵĿéĴŁèĬ±": 4994,
      "éĽĨåĽ¢åĨĽ": 4995,
      "éĶĻè¯¯": 4996,
      "åĿļæĮģ": 4997,
      "åŃŁåĬłæĭī": 4998,
      "æī®æ¼Ķ": 4999,
      "éĺ¿åħĭæ¯Ľ": 5000,
      "æ¬§è¿Īå°¼æĸ¯": 5001,
      "IC": 5002,
      "SM": 5003,
      "ip": 5004,
      "åµ": 5005,
      "çļĦåĦ¿åŃĲ": 5006,
      "ä»ĩ": 5007,
      "åĲ¹": 5008,
      "æľīæīĢ": 5009,
      "çĽĨ": 5010,
      "éĢĨ": 5011,
      "éķĳ": 5012,
      "å½¦": 5013,
      "æĹ¥æĬ¥": 5014,
      "äºĨè§£": 5015,
      "ä¸ŃåĽ½è¶³çĲĥ": 5016,
      "ä¸ŃåĽ½åħ±äº§åħļ": 5017,
      "ä¸Ĭåįĩ": 5018,
      "çļĦæį": 5019,
      "çļĦæĻ": 5020,
      "åħ¬ä¸»": 5021,
      "éģµ": 5022,
      "è¢«è¿«": 5023,
      "ä¸»å¼ł": 5024,
      "èįĨ": 5025,
      "ä¾¦": 5026,
      "æĸ¹ä¾¿": 5027,
      "å¾ĹåĪ°äºĨ": 5028,
      "ç»ıéªĮ": 5029,
      "è·¯è¾¹": 5030,
      "å½ĵå±Ģ": 5031,
      "æ¬¡å¹´": 5032,
      "å¹³åİŁ": 5033,
      "æķĻå¸Ī": 5034,
      "åįģä¸ĥ": 5035,
      "æģ°": 5036,
      "æĢ»éĿ¢ç§¯": 5037,
      "æł¼é²ģ": 5038,
      "æ£ķ": 5039,
      "åĭĥ": 5040,
      "ä¸»è¦ģæĺ¯": 5041,
      "1983": 5042,
      "å¤«äºº": 5043,
      "æĶ¶è´Ń": 5044,
      "å¤įæĿĤ": 5045,
      "ç¢į": 5046,
      "é¼»": 5047,
      "çĶ²ç»Ħ": 5048,
      "çĪ¶æ¯į": 5049,
      "å¹³æĸ¹ç±³": 5050,
      "å·´å£«è·¯çº¿": 5051,
      "æĸĳçĤ¹": 5052,
      "åĽ½æ°ĳæĶ¿åºľ": 5053,
      "æĪĺæĸĹæľº": 5054,
      "âĢ¦âĢ¦": 5055,
      "çĸ¾çĹħ": 5056,
      "æĿĤæľ¨æŀĹä¸Ń": 5057,
      "88": 5058,
      "SE": 5059,
      "io": 5060,
      "Âł": 5061,
      "Ġh": 5062,
      "Ġ10": 5063,
      "ä»ĳ": 5064,
      "å¤§å¤ļ": 5065,
      "å¤§èĩ£": 5066,
      "åľ°çĲĨ": 5067,
      "åľ°çĤ¹": 5068,
      "çº¬": 5069,
      "åİ¢": 5070,
      "åİĦ": 5071,
      "æµ·å³¡": 5072,
      "å¤ļå¹´": 5073,
      "åħ¥éĢī": 5074,
      "çĽ¸æ¯Ķ": 5075,
      "èĭ±è¶ħ": 5076,
      "æıĲåįĩ": 5077,
      "åĪĨå¸ĥäºİåį°åº¦": 5078,
      "éĴ»": 5079,
      "æ¶Į": 5080,
      "180": 5081,
      "åĸĩ": 5082,
      "è½¬åĲĳ": 5083,
      "æĳĶ": 5084,
      "åĳ¨è¾¹": 5085,
      "ä¿®å»º": 5086,
      "åĦĴ": 5087,
      "æłĳæľ¨": 5088,
      "é£Łåĵģ": 5089,
      "å±ĤçļĦ": 5090,
      "åĪĨå¸ĥäºİä¸ŃåĽ½å¤§éĻĨçļĦäºĳåįĹ": 5091,
      "æĦŁåĪ°": 5092,
      "åĸľåī§": 5093,
      "äºĴçĽ¸": 5094,
      "oogle": 5095,
      "æłĸæģ¯åľ¨": 5096,
      "åĬªåĬĽ": 5097,
      "ä¿ĥè¿Ľ": 5098,
      "BA": 5099,
      "In": 5100,
      "çļĦæķħäºĭ": 5101,
      "å¤·": 5102,
      "æĹ¨": 5103,
      "å·¢": 5104,
      "ä¼ŀ": 5105,
      "æłı": 5106,
      "èµĲ": 5107,
      "éķ¿å®ĺ": 5108,
      "ä¸ªè¡ĮæĶ¿æĿĳ": 5109,
      "ä¸įåĪ°": 5110,
      "ä¸įæĺİ": 5111,
      "æµ·å¤ĸ": 5112,
      "ä¸İåħ¶ä»ĸ": 5113,
      "çĶ¨éĢĶ": 5114,
      "ä½ľèĢħ": 5115,
      "æľ¬æĸ¯": 5116,
      "å¯¹åºĶ": 5117,
      "ç©´": 5118,
      "å¼ķè¿Ľ": 5119,
      "å¤ĸåĽ½": 5120,
      "æıŃ": 5121,
      "ç®±": 5122,
      "çİĭæĺŁ": 5123,
      "æĥ¯": 5124,
      "è¾¾æĪĲ": 5125,
      "å·²è¢«": 5126,
      "å¦Ĥä½ķ": 5127,
      "åįİäºº": 5128,
      "ç©ºæ°Ķ": 5129,
      "ç´¯": 5130,
      "æ²ĻæĭĲ": 5131,
      "äº²èĩª": 5132,
      "æĿ¾ç§ĳ": 5133,
      "å£°ç§°": 5134,
      "å£°æĺİ": 5135,
      "ros": 5136,
      "èı²æĸ¯": 5137,
      "å¼ŁåŃĲ": 5138,
      "å¼Łå¼Ł": 5139,
      "é»İè´µ": 5140,
      "æ¹¿æ¶¦": 5141,
      "ç§ĺå¯Ĩ": 5142,
      "ĠRe": 5143,
      "æī¾åĪ°": 5144,
      "æ²ĥå°Ķ": 5145,
      "åŀĤçĽ´": 5146,
      "æ²ĻæĭĲæŀ£": 5147,
      "\"ãĢĤ": 5148,
      "52": 5149,
      "76": 5150,
      "è¤": 5151,
      "çļĦç¬¬äºĮ": 5152,
      "çļĦåıĳå±ķ": 5153,
      "å°ī": 5154,
      "æĸĭ": 5155,
      "ä¸Ģçº§": 5156,
      "æĺ¯ä½įäºİ": 5157,
      "çļĦæŁ": 5158,
      "æĸ¯åł¡": 5159,
      "æĬ¢": 5160,
      "æ±°": 5161,
      "ç¾Ł": 5162,
      "åĿĿ": 5163,
      "å¼ķåħ¥": 5164,
      "åº¦çļĦ": 5165,
      "çķª": 5166,
      "ç¼Ŀ": 5167,
      "æįĲ": 5168,
      "æģ¨": 5169,
      "åŁºæĸ¯é¡¿": 5170,
      "æ·»": 5171,
      "æĶ¹åĸĦ": 5172,
      "ä¸ĩç¾İåħĥ": 5173,
      "æ¸¸éªĳåħµ": 5174,
      "æ¯Ľæ³½": 5175,
      "ä»¥åıĬä¸ŃåĽ½å¤§éĻĨçļĦäºĳåįĹ": 5176,
      "æļĸ": 5177,
      "ä»£è¡¨å¤§ä¼ļ": 5178,
      "çľŁæŃ£": 5179,
      "çļĩå®¶": 5180,
      "1956": 5181,
      "åĿ¦åħĭ": 5182,
      "åĲ¯åĬ¨": 5183,
      "oft": 5184,
      "åĺīéĿĸ": 5185,
      "å®īæıĲæŁ¯": 5186,
      "åįµå½¢": 5187,
      "èĩªæ²»åĮº": 5188,
      "54": 5189,
      "Google": 5190,
      "MV": 5191,
      "çļĦäººåı£": 5192,
      "çļĦåħ³ç³»": 5193,
      "åľ¨äºİ": 5194,
      "å¹´çĶ±": 5195,
      "ä¸Ģæ®µ": 5196,
      "åĲİæľŁ": 5197,
      "æĹ¶ä»»": 5198,
      "ä¸ŃåĽ½åĽ½æ°ĳåħļ": 5199,
      "éĹ²": 5200,
      "éĽ¾": 5201,
      "åħ¬å®ī": 5202,
      "èĭĳ": 5203,
      "å¹¶çĶ±": 5204,
      "æľĢè¿ĳ": 5205,
      "éĻĨç»Ń": 5206,
      "ä¸īäºº": 5207,
      "çĶµä¿¡": 5208,
      "å¼ıæľĪåı°": 5209,
      "è¿ĽæŃ¥": 5210,
      "æľªæľī": 5211,
      "ç«ĭåį³": 5212,
      "ä¸¤ä¾§": 5213,
      "æĥĩ": 5214,
      "å½¢è±¡": 5215,
      "éĢīæ°ĳ": 5216,
      "éħ°": 5217,
      "éĴ©": 5218,
      "åĩ»èĲ½": 5219,
      "æĽ¾ä»»": 5220,
      "åıįæĺł": 5221,
      "é¢ĨéĺŁ": 5222,
      "æĽ´ä¸º": 5223,
      "å¤´éĥ¨": 5224,
      "çļĦä¸ĢäºĽ": 5225,
      "çĮ´": 5226,
      "å®¹éĩı": 5227,
      "åĬŀäºĭ": 5228,
      "æ´¾åĩº": 5229,
      "æĺ¯ä¸Ģä½į": 5230,
      "æķĪåºĶ": 5231,
      "1947": 5232,
      "1967": 5233,
      "çīĻåĪ©": 5234,
      "èį£èªī": 5235,
      "ä¹Ķæ²»": 5236,
      "åĪĳäºĭ": 5237,
      "å¯»æī¾": 5238,
      "çĶ³è¯·": 5239,
      "åĽ°éļ¾": 5240,
      "åĩĮæĹ¥": 5241,
      "å°Ŀè¯ķ": 5242,
      "åĮĪçīĻåĪ©": 5243,
      "é»İè´µæĥĩ": 5244,
      "æ¯Ľæ³½ä¸ľ": 5245,
      "250": 5246,
      "BC": 5247,
      "WW": 5248,
      "ĺæ±°": 5249,
      "çļĦåĪĨ": 5250,
      "çļĦä½įç½®": 5251,
      "åĲ¾": 5252,
      "åĪ·": 5253,
      "åľ¨é¦Ļæ¸¯": 5254,
      "åĬ²": 5255,
      "ï¼īï¼ļ": 5256,
      "å¯¨": 5257,
      "çİ»": 5258,
      "æĪĲéķ¿": 5259,
      "è´©": 5260,
      "è´¼": 5261,
      "åĩºæ¼Ķ": 5262,
      "è¥¿éĹ¨": 5263,
      "èĢĮè¨Ģ": 5264,
      "åĿĤ": 5265,
      "æľºç»Ħ": 5266,
      "å§¬": 5267,
      "æľĢä¸º": 5268,
      "è½¦è·¯": 5269,
      "ä½ĵéķ¿": 5270,
      "åħ¥åı£": 5271,
      "éĩĳçĩķ": 5272,
      "çłĸ": 5273,
      "æĦĪ": 5274,
      "å·´åŁº": 5275,
      "æĥ¨": 5276,
      "çº¦ä¸º": 5277,
      "æīĭæŀª": 5278,
      "å¤ªåĲİ": 5279,
      "åħ¬åı¸çļĦ": 5280,
      "äº¤æĺĵ": 5281,
      "äº¤æį¢": 5282,
      "åĵģçīĮ": 5283,
      "åĸĨ": 5284,
      "ç»´åħĭ": 5285,
      "ç»´æĬ¤": 5286,
      "ä½¿çĶ¨èĢħ": 5287,
      "ont": 5288,
      "åĲīä¼¦": 5289,
      "åĽ¾å½¢": 5290,
      "åī§éĽĨ": 5291,
      "æŃ¦è£ħ": 5292,
      "ä»Ĭå¤©": 5293,
      "åľ£å¥¥å°Ķ": 5294,
      "åĪĨå¸ĥäºİä¸ŃåĽ½å¤§éĻĨçļĦåĽĽå·ĿçŃīåľ°": 5295,
      "1946": 5296,
      "åĪĨå¸ĥåľ¨ä¸ŃåĽ½å¤§éĻĨçļĦåĽĽå·ĿçŃīåľ°": 5297,
      "è¯ģæį®": 5298,
      "å¤ıåŃ£": 5299,
      "èĢĥè¯ķ": 5300,
      "è°¢éĩĳçĩķ": 5301,
      "ï¼Īï¼Įï¼ī": 5302,
      "å«ģ": 5303,
      "éĻ¶åĸĨ": 5304,
      "æĮīçħ§": 5305,
      "ç§įåŃĲæ¤įçī©": 5306,
      "çĴĭ": 5307,
      "åŃ©åŃĲ": 5308,
      "æīĢåľ¨åľ°": 5309,
      "åĥµå°¸": 5310,
      "98": 5311,
      "Ġåľ¨": 5312,
      "Ġformula": 5313,
      "ï¼ı": 5314,
      "çļĦæĹ¥": 5315,
      "çļĦåĲįåŃĹ": 5316,
      "å¤ķ": 5317,
      "åľ¨å¤§": 5318,
      "åŃ¤": 5319,
      "çīŁ": 5320,
      "ä¸ºè±Ĩç§ĳ": 5321,
      "ä¸Ģå±Ĭ": 5322,
      "ä¸Ģèĩ´": 5323,
      "åľ°å¸¦": 5324,
      "åºĬ": 5325,
      "æłĹ": 5326,
      "ä»¥åįĹ": 5327,
      "åŃ¦å£«": 5328,
      "æĪĲåĪĨ": 5329,
      "åĩºåľº": 5330,
      "ç±³é«ĺ": 5331,
      "è¡ĮçļĦ": 5332,
      "åħ¬æĸ¤": 5333,
      "ç§ĳåŃ¦å®¶": 5334,
      "ç§ĳèĴ²æ¡ĥ": 5335,
      "èįĲ": 5336,
      "å®¶äºº": 5337,
      "åĮĹæĸ¹": 5338,
      "ä¹Łå°±æĺ¯": 5339,
      "çİ°åŃĺ": 5340,
      "çĶµæ±ł": 5341,
      "ä¸ĸè¾¾èµĸ": 5342,
      "åı·çļĦ": 5343,
      "éĩĳå¨ĺ": 5344,
      "éļ§": 5345,
      "åı¶åŃĲ": 5346,
      "æĶ¹éĢł": 5347,
      "è§Ĵåº¦": 5348,
      "çļĦä¸Ģéĥ¨åĪĨ": 5349,
      "æľįè£ħ": 5350,
      "èµĦéĩĳ": 5351,
      "art": 5352,
      "ãĤĮ": 5353,
      "æ´¾éģ£": 5354,
      "æºĲäºİ": 5355,
      "ä¼Ĺå¤ļ": 5356,
      "ä¿ĦåĽ½": 5357,
      "éĤ£ä¹Ī": 5358,
      "å¨ģå°Ķ": 5359,
      "æĸĹç§ĳ": 5360,
      "åįĥéĩĳ": 5361,
      "åī¯ä¸»å¸Ń": 5362,
      "æ¶Īå¤±": 5363,
      "æ¡ĥéĩĳå¨ĺ": 5364,
      "åĳĪçİ°": 5365,
      "åĩºçīĪç¤¾": 5366,
      "ä¸ĺéĻµ": 5367,
      "è¸ı": 5368,
      "å£³æĸĹç§ĳ": 5369,
      "é©±éĢĲ": 5370,
      "è²Į": 5371,
      "åĪĨç±»åŃ¦": 5372,
      "ä»ªä»ĹéĺŁ": 5373,
      "ç»ıåīįç»¼åĲĪ": 5374,
      "åĪĹæĸ¯èģĶ": 5375,
      "å·´åŁºæĸ¯åĿ¦": 5376,
      "ç§ĳèĴ²æ¡ĥå±ŀçļĦæ¤įçī©": 5377,
      "æ¡ĥéĩĳå¨ĺç§ĳèĴ²æ¡ĥå±ŀçļĦæ¤įçī©": 5378,
      "\"ï¼īï¼Į": 5379,
      "93": 5380,
      "PC": 5381,
      "çļĦæĶ¯æĮģ": 5382,
      "åľ¨è¯¥": 5383,
      "æĺ¯ä¸º": 5384,
      "åĴĮåħ¶ä»ĸ": 5385,
      "å½Ĺ": 5386,
      "è¾¨": 5387,
      "æĪĲæľ¬": 5388,
      "æĢķ": 5389,
      "ç§įæ¤į": 5390,
      "å¸ĥåİĨ": 5391,
      "ä¸»æīĵ": 5392,
      "ä¸ĭä¸Ģ": 5393,
      "å¼ĢéĢļ": 5394,
      "è¿Ļé¡¹": 5395,
      "å¸ĤçļĦ": 5396,
      "å¾·éĩĮ": 5397,
      "æŃ£ç¡®": 5398,
      "ä»İæŃ¤": 5399,
      "éĺ¿å¯Į": 5400,
      "é¦ĸåºľ": 5401,
      "å²ĽçļĦ": 5402,
      "çĭĦ": 5403,
      "åıĤéĢī": 5404,
      "æ²³è¾¹": 5405,
      "æĴ°": 5406,
      "è¯´æĺİ": 5407,
      "æĦıä¹ī": 5408,
      "åī§æĥħ": 5409,
      "åį³å°Ĩ": 5410,
      "é£İæĻ¯": 5411,
      "æ¸ħåº·": 5412,
      "æĳĨ": 5413,
      "ä¿®æŃ£": 5414,
      "å±ħäºİ": 5415,
      "é¸£": 5416,
      "åĵĪèĲ¨": 5417,
      "é±¼ç±»": 5418,
      "é¥Ń": 5419,
      "å¨ģå»ī": 5420,
      "1948": 5421,
      "èĵ¬": 5422,
      "å£°éŁ³": 5423,
      "åĮĹäº¬å¸Ĥ": 5424,
      "æĲº": 5425,
      "æ¤İ": 5426,
      "éĨĴ": 5427,
      "éļ¾ä»¥": 5428,
      "çĬ¯ç½ª": 5429,
      "ç¬¦åĲĪ": 5430,
      "æį·æĸ¯": 5431,
      "çļĦæĢ§": 5432,
      "åį±æľº": 5433,
      "é¢ģå¥ĸ": 5434,
      "åŁºéĩĳä¼ļ": 5435,
      "ISO": 5436,
      "åĶĩå½¢ç§ĳé¼łå°¾èįī": 5437,
      "åĲīä¼¦åĵĪå°Ķ": 5438,
      "å¸ĥåİĨæį·æĸ¯": 5439,
      "éĺ¿å¯Įæ±Ĺ": 5440,
      "71": 5441,
      "CD": 5442,
      "ï¹": 5443,
      "Ġï¼Ī": 5444,
      "çļĦåĲį": 5445,
      "çļĦåĲĮ": 5446,
      "çļĦäºĭ": 5447,
      "å¹¢": 5448,
      "åĲ¡": 5449,
      "å¹´çĲĥåŃ£": 5450,
      "ä¹ŀ": 5451,
      "æĺ¯åĽłä¸º": 5452,
      "æĺ¯èĶ·èĸĩç§ĳ": 5453,
      "å¤§å°ı": 5454,
      "å¤§èģĶçĽŁ": 5455,
      "éĻª": 5456,
      "åĩĿ": 5457,
      "çĽĪ": 5458,
      "åŃ¦ä¼ļ": 5459,
      "æĹ¥äºİ": 5460,
      "åĲİè¢«": 5461,
      "âĢĺ": 5462,
      "ä¸Ĭä¸ĭ": 5463,
      "åįĹæĸ¹": 5464,
      "å±±é¡¶": 5465,
      "åıĳèµ·": 5466,
      "ç§ĳçģ¯å¿ĥèįī": 5467,
      "å¯¹æĬĹ": 5468,
      "äºļç§į": 5469,
      "æĸĩä»¶": 5470,
      "åħ¨éķĩ": 5471,
      "éĩĳæĽ²": 5472,
      "è®¾äºİ": 5473,
      "åįģåŃĹ": 5474,
      "éĢļéģĵ": 5475,
      "æĥ§": 5476,
      "èĭ±éķĳ": 5477,
      "è£ĺ": 5478,
      "åįİåĮĹ": 5479,
      "æ£ĭ": 5480,
      "æ²³æ»©": 5481,
      "åıªè¦ģ": 5482,
      "æĬ¥å¯¼": 5483,
      "åį¡å°Ķ": 5484,
      "åį³ä½¿": 5485,
      "åĪĽå»º": 5486,
      "èħ¾": 5487,
      "ä»¤äºº": 5488,
      "çľŁå®ŀ": 5489,
      "åįłåľ°": 5490,
      "æ¾³å·´": 5491,
      "è¡ĮæĶ¿éĻ¢": 5492,
      "1968": 5493,
      "æĵħ": 5494,
      "æŁ¯å±ŀçļĦæ¤įçī©": 5495,
      "åħ¼ä»»": 5496,
      "unt": 5497,
      "çī¹åĪ«æĺ¯": 5498,
      "çģ¯å¿ĥèįīç§ĳçģ¯å¿ĥèįī": 5499,
      "ook": 5500,
      "èĬ¬åħ°": 5501,
      "ç»¼èīº": 5502,
      "è®¡ç®Ĺæľº": 5503,
      "çļĦæĥħåĨµä¸ĭ": 5504,
      "æ¦Ĥå¿µ": 5505,
      "çĬ¹å¤ª": 5506,
      "åľ£å¥¥å°Ķæľ¬æĸ¯": 5507,
      "å£³æĸĹç§ĳæŁ¯å±ŀçļĦæ¤įçī©": 5508,
      "åĶĩå½¢ç§ĳé¼łå°¾èįīå±ŀçļĦæ¤įçī©": 5509,
      "au": 5510,
      "km": 5511,
      "çļĦå½¢å¼ı": 5512,
      "åĲı": 5513,
      "å¸½": 5514,
      "åĨ»": 5515,
      "åĩ¹": 5516,
      "çī¹å®ļ": 5517,
      "åŁ¹åħ»": 5518,
      "è®¾å®ļ": 5519,
      "æķ°åŃĹ": 5520,
      "éĶ¥": 5521,
      "ãģª": 5522,
      "åı¤èįī": 5523,
      "æĽ´åĲįä¸º": 5524,
      "ç»´å¥ĩ": 5525,
      "åı²ä¸Ĭ": 5526,
      "è½¬ç§»": 5527,
      "è½¬æį¢": 5528,
      "æłĩå¿Ĺ": 5529,
      "éĩİåı¤èįī": 5530,
      "æ¯įèĪ°": 5531,
      "åıĳçİ°äºĨ": 5532,
      "ç³»ç»ŁçļĦ": 5533,
      "æ°¸è¿ľ": 5534,
      "æĹĹä¸ĭ": 5535,
      "çĪĨçĤ¸": 5536,
      "å«©": 5537,
      "ive": 5538,
      "è´¢åĬ¡": 5539,
      "é¡¾éĹ®": 5540,
      "æ¶īåıĬ": 5541,
      "ç¨įåĲİ": 5542,
      "å¾ªçİ¯": 5543,
      "çģ¯å¿ĥèįīç§ĳçģ¯å¿ĥèįīå±ŀçļĦæ¤įçī©": 5544,
      "com": 5545,
      "ry": 5546,
      "»çīĽ": 5547,
      "ä¸Ńè¶ħ": 5548,
      "çī»çīĽ": 5549,
      "ä¸Ģåº§": 5550,
      "æĪĬ": 5551,
      "ï¼Īï¼Ľ": 5552,
      "æĿı": 5553,
      "å¤§éģĵ": 5554,
      "ä»¥æŃ¤": 5555,
      "ä»¥ä¾¿": 5556,
      "éĢ®": 5557,
      "éĥĬ": 5558,
      "å¯¸": 5559,
      "æĪĲç¥ĸ": 5560,
      "æĢĸ": 5561,
      "åīįèº«": 5562,
      "è¡Įä¸ļ": 5563,
      "æĸ¯æŀĹ": 5564,
      "èĬĿ": 5565,
      "æľ¬åľŁ": 5566,
      "é«ĺè¾¾": 5567,
      "èĪ±": 5568,
      "èĪľ": 5569,
      "å§¿": 5570,
      "å§ĳ": 5571,
      "åĨĽçļĦ": 5572,
      "åĬ¨ä½ľ": 5573,
      "å¼ĢåĬŀ": 5574,
      "é©³": 5575,
      "éĹ´çļĦ": 5576,
      "æ¬¡äºİ": 5577,
      "ç¥¯": 5578,
      "åħ¨éĿ¢": 5579,
      "éĢļä¿¡": 5580,
      "å·´å°Ķ": 5581,
      "åı¶é¾ĻèĥĨ": 5582,
      "éĺ¿éĥ¨": 5583,
      "éħ¯": 5584,
      "é¦ĸæĴŃ": 5585,
      "åıĹæ¬¢è¿İ": 5586,
      "æ£ī": 5587,
      "æĿ¡ä¾ĭ": 5588,
      "åį¡æĸ¯": 5589,
      "æīĵè´¥": 5590,
      "åį³ä½į": 5591,
      "çº¢æĸĳ": 5592,
      "çĮĽ": 5593,
      "æĺ¯ä¸ĢåĲį": 5594,
      "åħ´è¶£": 5595,
      "æİ¨åĬ¨": 5596,
      "èĪªç©ºæ¯įèĪ°": 5597,
      "è¿ĲåĬ¨ä¼ļ": 5598,
      "1973": 5599,
      "1966": 5600,
      "éĢĢåĩº": 5601,
      "è¿ªäºļ": 5602,
      "èĸĽ": 5603,
      "åĪ¶ä½ľäºº": 5604,
      "own": 5605,
      "ä¼ĺåĬ¿": 5606,
      "æĹĭè½¬": 5607,
      "é¸¢å°¾ç§ĳ": 5608,
      "æ½®æ¹¿": 5609,
      "èĬ±èŁ¹èĽĽå±ŀçļĦåĬ¨çī©": 5610,
      "ä¸ºèŁ¹èĽĽç§ĳèĬ±èŁ¹èĽĽå±ŀçļĦåĬ¨çī©": 5611,
      "å¥¥æĸ¯æĽ¼": 5612,
      "ä¸ŃåĽ½å¤§éĻĨçļĦæ¹ĸåįĹ": 5613,
      "çļĦæ¶Ī": 5614,
      "æĳĩæ»ļ": 5615,
      "çįŃ": 5616,
      "éļ§éģĵ": 5617,
      "çī»çīĽåĦ¿": 5618,
      "74": 5619,
      "TA": 5620,
      "Ġw": 5621,
      "çļĦéķ¿": 5622,
      "åľ³": 5623,
      "åľ¨å¯¹": 5624,
      "åĬĿ": 5625,
      "å¤§è¿ŀ": 5626,
      "æīŃ": 5627,
      "éķ¿è¾¾": 5628,
      "ä¼ļéķ¿": 5629,
      "åĮºåĨħ": 5630,
      "ä¹ĭæĪĺ": 5631,
      "å¿ĺ": 5632,
      "åı°è¯Ń": 5633,
      "åı°é£İ": 5634,
      "æĮª": 5635,
      "ç¾İä¸½": 5636,
      "å»ºæĪĲ": 5637,
      "èĤ©": 5638,
      "æĪĺè½¦": 5639,
      "å¤ĸçļĦ": 5640,
      "ç¥º": 5641,
      "éĵ¾": 5642,
      "èģĶç»ľ": 5643,
      "èĬ±åºı": 5644,
      "åįģäºĶ": 5645,
      "éŁ³èĬĤ": 5646,
      "å¿ĥçĲĨ": 5647,
      "åĪĻä¸º": 5648,
      "åįķæīĵ": 5649,
      "ort": 5650,
      "ç²®": 5651,
      "æŃĮè¯į": 5652,
      "åĭĭ": 5653,
      "å¾Ģå¾Ģ": 5654,
      "è¿ŀéĶģ": 5655,
      "æĳ§": 5656,
      "å¾Īå°ĳ": 5657,
      "åĬŁçİĩ": 5658,
      "æ¥ł": 5659,
      "éĩİçĶŁ": 5660,
      "çªĦ": 5661,
      "ate": 5662,
      "çĻ»è®°": 5663,
      "éŃģ": 5664,
      "ç»Ħç»ĩçļĦ": 5665,
      "1979": 5666,
      "æ³¨åĨĮ": 5667,
      "æĭľåįł": 5668,
      "æĳ©çĻ»": 5669,
      "è°¢èı²æĸ¯": 5670,
      "åħįçĸ«": 5671,
      "å·®å¼Ĥ": 5672,
      "é¸¢å°¾å±ŀçļĦæ¤įçī©": 5673,
      "ç¦ģæŃ¢": 5674,
      "æĲŃè½½": 5675,
      "çŀĦ": 5676,
      "éĺ»æŃ¢": 5677,
      "è¡įçĶŁ": 5678,
      "ä¸ŃåĽ½å¤§éĻĨçļĦæ¹ĸåĮĹ": 5679,
      "ç¯®çĲĥ": 5680,
      "æĮĳæĪĺ": 5681,
      "çļĦæ´»": 5682,
      "è½¦è·¯å£«": 5683,
      "é¸¢å°¾ç§ĳé¸¢å°¾å±ŀçļĦæ¤įçī©": 5684,
      "çī»çīĽåĦ¿èĭĹ": 5685,
      "62": 5686,
      "ear": 5687,
      "if": 5688,
      "ile": 5689,
      "our": 5690,
      "Ġäºº": 5691,
      "ä¸Ī": 5692,
      "çļĦæ°´": 5693,
      "çļĦçĶµå½±": 5694,
      "æľ´": 5695,
      "çĶº": 5696,
      "æĺ¯æ¯ĽèĮĽç§ĳç¿łéĽĢå±ŀçļĦæ¤įçī©": 5697,
      "å¤§èµĽ": 5698,
      "å¤§åı¶": 5699,
      "æµ©": 5700,
      "åİ¥": 5701,
      "ä¸ĬäºĨ": 5702,
      "ä¸įä»ħ": 5703,
      "è¡Įèµ°": 5704,
      "éĥ¨èĲ½": 5705,
      "æµ·ä¸Ĭ": 5706,
      "åıĳçļĦ": 5707,
      "ç§ĳèĥ¡æ¤Ĵ": 5708,
      "çŁ¶": 5709,
      "æĪĺæľ¯": 5710,
      "åı·åıĬ": 5711,
      "éĩįå¤§": 5712,
      "ä¸ļèĢħ": 5713,
      "ç¥Ĳ": 5714,
      "ä¸¤åĲį": 5715,
      "åİŁåŃĲ": 5716,
      "æģŃ": 5717,
      "æĺİæĪĲç¥ĸ": 5718,
      "éĢīä¸º": 5719,
      "éĢīæīĭ": 5720,
      "çº¦æľī": 5721,
      "åħ³éĶ®": 5722,
      "188": 5723,
      "æİ¥æĶ¶": 5724,
      "åĩ»æŃ¥æŀª": 5725,
      "åĪĻåľ¨": 5726,
      "æĽ´å¤ļçļĦ": 5727,
      "æ°Ķä½ĵ": 5728,
      "æ°ĶæĹĭ": 5729,
      "åĻ¶": 5730,
      "ä»¥åıĬä¸ŃåĽ½å¤§éĻĨçļĦè¥¿èĹı": 5731,
      "æłĩæľ¬": 5732,
      "end": 5733,
      "ä¿®å¤į": 5734,
      "çĶ»å®¶": 5735,
      "èĲ¨å°Ķ": 5736,
      "æİĴåĪĹ": 5737,
      "éĽ·å°Ħ": 5738,
      "ĠSh": 5739,
      "éĺ²æŃ¢": 5740,
      "åĲ«æľī": 5741,
      "1952": 5742,
      "éĢĢä¼ĳ": 5743,
      "ĠPIE": 5744,
      "èµ«çī¹": 5745,
      "ç£·": 5746,
      "è½»è½¨": 5747,
      "è¾ĵåĩº": 5748,
      "æĢĿæĥ³": 5749,
      "åĤħ": 5750,
      "çļĦæĬ¥": 5751,
      "åı¦ä¸Ģæĸ¹éĿ¢": 5752,
      "ç§ģäºº": 5753,
      "èĥ¡æ¤Ĵç§ĳèĥ¡æ¤Ĵ": 5754,
      "ç¿»è¯ĳ": 5755,
      "è¦ĨçĽĸ": 5756,
      "å·¡åĽŀæ¼ĶåĶ±ä¼ļ": 5757,
      "å´Ķä¸ĸ": 5758,
      "æŃĮèĪŀåĽ¢": 5759,
      "åįĥéĩĳèĹ¤": 5760,
      "åĵĪèĲ¨åħĭæĸ¯åĿ¦": 5761,
      "æĭľåįłåºŃ": 5762,
      "èĥ¡æ¤Ĵç§ĳèĥ¡æ¤Ĵå±ŀçļĦæ¤įçī©": 5763,
      "69": 5764,
      "ID": 5765,
      "MO": 5766,
      "az": 5767,
      "iz": 5768,
      "qu": 5769,
      "||": 5770,
      "çļĦæĸ¹æ³ķ": 5771,
      "åĲŀ": 5772,
      "å¸ħ": 5773,
      "ä¸ºå¹³": 5774,
      "å¤§å¸Ī": 5775,
      "åĲįè¯į": 5776,
      "ä¼ļæľī": 5777,
      "ä¼ļè¢«": 5778,
      "ä¸Ĭè¿°": 5779,
      "åĩºåı£": 5780,
      "ä»ĸä¸İ": 5781,
      "åħ¬æ°ĳ": 5782,
      "åĬłæĸ¯": 5783,
      "çİ°æľī": 5784,
      "æīĢçŁ¥": 5785,
      "çľī": 5786,
      "å¼ıçļĦ": 5787,
      "ç§°åı·": 5788,
      "éĵĥ": 5789,
      "åİŁæĿ¥": 5790,
      "çĤī": 5791,
      "å·ŀçļĦ": 5792,
      "æ¯Ķäºļ": 5793,
      "èĭ±éĽĦ": 5794,
      "æ°´é¾Ł": 5795,
      "å½¢çĽ®": 5796,
      "å°±åľ¨": 5797,
      "é²Ī": 5798,
      "åı¤åħ¸": 5799,
      "ä¼łåªĴ": 5800,
      "æĦıè§ģ": 5801,
      "æŀľå®ŀ": 5802,
      "æľįå½¹": 5803,
      "è¾ĥå¤§": 5804,
      "ary": 5805,
      "æĶ¶è§Ĩ": 5806,
      "å°¾å·´": 5807,
      "å±ħå§Ķä¼ļ": 5808,
      "åħ«å¹´": 5809,
      "æ¾Ħ": 5810,
      "é±¼çº²": 5811,
      "æĿĢå®³": 5812,
      "åĿĩä¸º": 5813,
      "æĤī": 5814,
      "1944": 5815,
      "åĪĨå¸ĥåľ¨ä¸ŃåĽ½å¤§éĻĨçļĦäºĳåįĹ": 5816,
      "1976": 5817,
      "åıĳçĶŁåľ¨": 5818,
      "æĸ¹éĿ¢çļĦ": 5819,
      "é³įé±¼çº²": 5820,
      "1931": 5821,
      "çĸıæŀĹ": 5822,
      "çģ°èī²": 5823,
      "è´¢æĶ¿": 5824,
      "æĤ£èĢħ": 5825,
      "èįīä¸Ľä¸Ń": 5826,
      "éĩįåºĨå¸Ĥ": 5827,
      "çĩĥæĸĻ": 5828,
      "ock": 5829,
      "çģĮæľ¨ä¸Ľ": 5830,
      "åį¡æĭīå·´èµ«": 5831,
      "è¾Ĳé³įé±¼çº²": 5832,
      "å¹¿ä¹īçĽ¸å¯¹è®º": 5833,
      "éĦĤ": 5834,
      "èı©èĲ¨": 5835,
      "ä¸ŃåĽ½è¶³çĲĥçĶ²": 5836,
      "350": 5837,
      "59": 5838,
      "AM": 5839,
      "ling": 5840,
      "land": 5841,
      "çļĦæĹ¥æľ¬": 5842,
      "çļĦä½ľåĵģ": 5843,
      "çļĦåİŁåĽł": 5844,
      "ä¸ºè¾Ĳé³įé±¼çº²": 5845,
      "æĺ¯è±Ĩç§ĳ": 5846,
      "è¯Ĭ": 5847,
      "è®¼": 5848,
      "çºł": 5849,
      "æĭ±": 5850,
      "ä»¥åĮĹ": 5851,
      "å½°": 5852,
      "éĺª": 5853,
      "ä¸ĬéĿ¢": 5854,
      "çļĦæ£": 5855,
      "è¡Įä½¿": 5856,
      "è¢ľ": 5857,
      "æĸ¯åŁº": 5858,
      "æĬ¼": 5859,
      "å¤ļäºº": 5860,
      "æ±¶": 5861,
      "èĩ³äºİ": 5862,
      "ä¸ĭåįĬ": 5863,
      "å§ļ": 5864,
      "å§ľ": 5865,
      "å¯¹ç§°": 5866,
      "å¯¹è±¡": 5867,
      "è¿Ļéĥ¨": 5868,
      "åĳĺå·¥": 5869,
      "æĻĵ": 5870,
      "éĩįè¿Ķ": 5871,
      "ç§°åĳ¼": 5872,
      "åįģåħŃ": 5873,
      "åİŁåĪĻ": 5874,
      "éĶĲ": 5875,
      "æ°´æ³¥": 5876,
      "å½¢æĢģ": 5877,
      "åģ·": 5878,
      "æĹłæ¯Ľ": 5879,
      "åĪĨå¸ĥäºİä¿Ħç½Ĺæĸ¯": 5880,
      "åĪĹåħ¥": 5881,
      "å®ŀåĬĽ": 5882,
      "æ·ĺæ±°": 5883,
      "æīĭæľº": 5884,
      "æĦıå¤ĸ": 5885,
      "å¸¦æĿ¥": 5886,
      "è®¤è¯Ĩ": 5887,
      "ç¬¬ä¸Ģä½į": 5888,
      "å¾Ģè¿Ķ": 5889,
      "åħĪè¿Ľ": 5890,
      "è½¬æĬķ": 5891,
      "æ²Ļå°¼äºļ": 5892,
      "å¼ºè°ĥ": 5893,
      "åĪĽæĸ°": 5894,
      "ä¾ĽåºĶ": 5895,
      "èĢģå¸Ī": 5896,
      "çĪ±æ²Ļå°¼äºļ": 5897,
      "çĶ»éĿ¢": 5898,
      "ä¼Ĭæĭīåħĭ": 5899,
      "æºĲèĩª": 5900,
      "åĳĬè¯ī": 5901,
      "æĺ¾èĳĹ": 5902,
      "ãĥ©": 5903,
      "ãĥ³": 5904,
      "å¹²æĹ±": 5905,
      "å¹¿ä¸ľçľģ": 5906,
      "ä½Ĩæĺ¯åľ¨": 5907,
      "1957": 5908,
      "1959": 5909,
      "åĪĨåĪ«ä¸º": 5910,
      "ä½ĵèĤ²é¦Ĩ": 5911,
      "Ġto": 5912,
      "çĽĳçĿ£": 5913,
      "æį·è¿Ĳ": 5914,
      "æĴ¤éĢĢ": 5915,
      "çľ¼çĿ": 5916,
      "Ġ3166": 5917,
      "çļĦæ¸¸æĪı": 5918,
      "éĢ®æįķ": 5919,
      "ç¥ºçĳŀ": 5920,
      "æĳ§æ¯ģ": 5921,
      "96": 5922,
      "aw": 5923,
      "ew": 5924,
      "âĶ": 5925,
      "Ġ4": 5926,
      "åıł": 5927,
      "ä¸ºäºº": 5928,
      "å¤§åľ°": 5929,
      "çĶŁåŃĺ": 5930,
      "æĹ¥æĸĩ": 5931,
      "éķ¿æ±Ł": 5932,
      "ä¼ļä¸Ĭ": 5933,
      "ä¸įå®¹": 5934,
      "åīįçļĦ": 5935,
      "è¡Įé©¶": 5936,
      "ä»ĸè¢«": 5937,
      "æ´ģ": 5938,
      "æĬļ": 5939,
      "åħ¶åŃĲ": 5940,
      "æľ¬å±Ĭ": 5941,
      "èĢĮéĿŀ": 5942,
      "èĪĮ": 5943,
      "æĸ¹ç¨ĭ": 5944,
      "å¸ĤæĶ¿": 5945,
      "å¸Ĥéķĩ": 5946,
      "è¿ĩä¸ĸ": 5947,
      "ç¾İæĭī": 5948,
      "æŃ¤æ¬¡": 5949,
      "å¦Ļ": 5950,
      "è·¯æĺĵ": 5951,
      "ä¸ĸåĩ¯": 5952,
      "çº¿æĢ§": 5953,
      "ç«ĭéĻ¶": 5954,
      "åĪ¶çļĦ": 5955,
      "éĥ½ä¸į": 5956,
      "çĤŃ": 5957,
      "è¯¥å²Ľ": 5958,
      "æ°´æ·±": 5959,
      "åı¸æ³ķ": 5960,
      "æıĲåĪ°": 5961,
      "æĢ»è£ģ": 5962,
      "åĽ¢éķ¿": 5963,
      "æĶ¹å»º": 5964,
      "çĬ¬": 5965,
      "æĽ´æĺ¯": 5966,
      "one": 5967,
      "å±ķè§Ī": 5968,
      "åħ·ä½ĵ": 5969,
      "çº³æĸ¯": 5970,
      "åı¦æľī": 5971,
      "æ®µç¥ºçĳŀ": 5972,
      "ä¼Ĭèĥ½": 5973,
      "ä¸ĥåı¶": 5974,
      "éĺ²å¾¡": 5975,
      "ä»ħæ¬¡äºİ": 5976,
      "æ¸©åº¦": 5977,
      "å§Ķåĳĺä¼ļå§Ķåĳĺ": 5978,
      "å¾ģæľį": 5979,
      "ç³»åĪĹçļĦ": 5980,
      "ç£¨": 5981,
      "èī¯å¥½": 5982,
      "éĩĬæĶ¾": 5983,
      "å´ĩç¥¯": 5984,
      "ight": 5985,
      "æ²Īéĺ³": 5986,
      "è¢ģä¸ĸåĩ¯": 5987,
      "çŁ³çģ°å²©": 5988,
      "é²Īå½¢çĽ®": 5989,
      "ä¸ºè¾Ĳé³įé±¼çº²é²Īå½¢çĽ®": 5990,
      "ç«ĭéĻ¶å®Ľ": 5991,
      "Mic": 5992,
      "ms": 5993,
      "ox": 5994,
      "ug": 5995,
      "çļĦå·¥ä½ľ": 5996,
      "äº©": 5997,
      "åľ¨ä¸Ģ": 5998,
      "å¹´æĹ¶": 5999,
      "å¹´åĪ°": 6000,
      "æī£": 6001,
      "æŀ«": 6002,
      "æĹ¥åĲİ": 6003,
      "åīĬ": 6004,
      "åĲįå½ķ": 6005,
      "å¥ĭ": 6006,
      "çļĦæĳ": 6007,
      "åĩºèī²": 6008,
      "æĿ¥å¾Ģ": 6009,
      "åŃĲå¼¹": 6010,
      "åĮĹæŀģ": 6011,
      "è¿Ļåľº": 6012,
      "åĬłå·¥": 6013,
      "æĶ¿åħļ": 6014,
      "åĨħäºļ": 6015,
      "è°Ń": 6016,
      "çķĶ": 6017,
      "éĿ¢å¯¹": 6018,
      "æŃ£éĢī": 6019,
      "çĽ¸äºĴ": 6020,
      "éĶ¯": 6021,
      "éĶĪ": 6022,
      "æ°´ä¸Ń": 6023,
      "æıĲçĲ´": 6024,
      "éĴĿ": 6025,
      "åĽ¢éĺŁ": 6026,
      "çĽ´çº¿": 6027,
      "ä¿Ŀç½Ĺ": 6028,
      "å¯¼å¼¹": 6029,
      "ä¸ĵçº¿": 6030,
      "æ°Ķåİĭ": 6031,
      "åĨ¬åŃ£": 6032,
      "å¾Īå¤§": 6033,
      "ç½ĳä¸Ĭ": 6034,
      "åħ¶ä¸ŃåĮħæĭ¬": 6035,
      "åį«çĶŁ": 6036,
      "ç¢Ł": 6037,
      "å¼¹èį¯": 6038,
      "è¡ĮæĶ¿éķ¿å®ĺ": 6039,
      "æĸĹå£«": 6040,
      "èĵĦ": 6041,
      "é¢Ħç®Ĺ": 6042,
      "è¶³çĲĥèģĶèµĽ": 6043,
      "ç¤¾ä¼ļåħļ": 6044,
      "æĪ¿å±ĭ": 6045,
      "åĨ²ç»³": 6046,
      "å±±åľ°èįīåĿ¡": 6047,
      "ä¸¥æł¼": 6048,
      "ç»Ŀå¯¹": 6049,
      "æ··äº¤": 6050,
      "æĳĦå½±": 6051,
      "æ²¿æµ·": 6052,
      "çĬ¯è§Ħ": 6053,
      "åģ¥åº·": 6054,
      "æŁıæŀĹ": 6055,
      "æĪĪå°Ķ": 6056,
      "æĢĢçĸĳ": 6057,
      "çĭĤèĽĽ": 6058,
      "è·ĳéģĵ": 6059,
      "è¿Ŀåıį": 6060,
      "åĬŀåħ¬å®¤": 6061,
      "å°¤åħ¶æĺ¯": 6062,
      "ä¼Ĭæĸ¯åħ°æķĻ": 6063,
      "æ±¡æŁĵ": 6064,
      "ä½ĵéķ¿åı¯è¾¾": 6065,
      "éĩĳæĽ²å¥ĸ": 6066,
      "çī»çīĽåĦ¿èĭĹç§ĳ": 6067,
      "SI": 6068,
      "son": 6069,
      "çļĦéŁ³ä¹Ĳ": 6070,
      "çļĦåİĨåı²": 6071,
      "çļĦæľĢé«ĺ": 6072,
      "åľŃ": 6073,
      "å¤¹": 6074,
      "åľ¨ä»ĸ": 6075,
      "ä¸ŃæľŁ": 6076,
      "å¸Ĳ": 6077,
      "åĬ«": 6078,
      "æĺ¯æĬ¥æĺ¥èĬ±ç§ĳçıįçıłèıľå±ŀçļĦæ¤įçī©": 6079,
      "æľīä¸ī": 6080,
      "åºŀ": 6081,
      "çºº": 6082,
      "æĭ¨": 6083,
      "èµĭ": 6084,
      "å¯®": 6085,
      "ï¼ļ\"": 6086,
      "åīįåĲİ": 6087,
      "æĬ±": 6088,
      "æĬ½": 6089,
      "ç§ĳåŃ¦éĻ¢": 6090,
      "ãĢĭ(": 6091,
      "æĪĺèĥľ": 6092,
      "å¦®": 6093,
      "åĮĸçŁ³": 6094,
      "åİŁçĲĨ": 6095,
      "æĥľ": 6096,
      "æķ°åŃ¦": 6097,
      "æ¼³": 6098,
      "éĤĳ": 6099,
      "æĺŁç³»": 6100,
      "ä¿ĿåŃĺ": 6101,
      "æĹ¥æľ¬çļĦ": 6102,
      "èĳĹæľī": 6103,
      "åĵģç§į": 6104,
      "æĽ´æĸ°": 6105,
      "è¶³åįı": 6106,
      "è¶³å¤Ł": 6107,
      "çļĦä¸ĢæĿ¡": 6108,
      "è£ħå¤ĩ": 6109,
      "æĶ¿åºľçļĦ": 6110,
      "ä¿¡åı·": 6111,
      "çº³å°Ķ": 6112,
      "å¡ŀçĲī": 6113,
      "è®¾è®¡çļĦ": 6114,
      "ä¾ĭåŃĲ": 6115,
      "é¹¤": 6116,
      "æ·±åľ³": 6117,
      "1961": 6118,
      "åŃ¦æł¡çļĦ": 6119,
      "è´Ŀåħĭ": 6120,
      "è±¡å¾ģ": 6121,
      "ç¤¾ä¼ļä¸»ä¹ī": 6122,
      "ä»·æł¼": 6123,
      "å®ĪæĬ¤": 6124,
      "è¯·æ±Ĥ": 6125,
      "åĬ³å·¥": 6126,
      "å·¨å¤§": 6127,
      "éģŃéģĩ": 6128,
      "éģĹäº§": 6129,
      "åĪļæŀľ": 6130,
      "èķ¾": 6131,
      "éŁ¦åģ¥": 6132,
      "éŃĶæ³ķ": 6133,
      "éĿĴæµ·çŃīåľ°": 6134,
      "æ¡£æ¡Ī": 6135,
      "å¸ĮèħĬè¯Ń": 6136,
      "åıĻåĪ©äºļ": 6137,
      "äºļåİĨå±±å¤§": 6138,
      "æĳĶè§Ĵ": 6139,
      "åĬŀäºĭå¤Ħ": 6140,
      "èĪľå¤©": 6141,
      "çľ¼çĿĽ": 6142,
      "âĶĢ": 6143,
      "72": 6144,
      "82": 6145,
      "ON": 6146,
      "XM": 6147,
      "ris": 6148,
      "ÃĹ": 6149,
      "åį¸": 6150,
      "æĺ¯ä¸ª": 6151,
      "å¤§å¤«": 6152,
      "å¤§èĩ´": 6153,
      "å¤§åİ¦": 6154,
      "äººä¸º": 6155,
      "éĻĤ": 6156,
      "èĢķ": 6157,
      "çī©ä½ĵ": 6158,
      "ç«Ł": 6159,
      "éĹ¸": 6160,
      "è¥¿å®ī": 6161,
      "ä¸İæŃ¤": 6162,
      "æİĺ": 6163,
      "å¿§": 6164,
      "ä¸»ç®¡": 6165,
      "åı¯æ¢¦": 6166,
      "å°Ķçī¹": 6167,
      "åĵĢ": 6168,
      "çŁ©": 6169,
      "æ³ķçļĦ": 6170,
      "ä¹Łåı¯": 6171,
      "è¶ĭ": 6172,
      "æĪĺçķ¥": 6173,
      "éĩĮè¾¾": 6174,
      "åħĭéĩĮ": 6175,
      "ç³Ļ": 6176,
      "æ¯ĶåĪ©": 6177,
      "å°ļä¹¦": 6178,
      "åĢº": 6179,
      "æĶ¹åĲįä¸º": 6180,
      "åıĤèĢĥ": 6181,
      "è®®å¸Ń": 6182,
      "ork": 6183,
      "äºĶä¸ª": 6184,
      "å¸¦é¢Ĩ": 6185,
      "è¾¹çķĮ": 6186,
      "ä»¥åıĬä¸ŃåĽ½å¤§éĻĨçļĦåĲīæŀĹ": 6187,
      "è£ħçĶ²": 6188,
      "è£ħé¥°": 6189,
      "130": 6190,
      "æ¯ıå¤©": 6191,
      "æŃ¦æľ¯": 6192,
      "å¥¥æŀĹ": 6193,
      "äººæ°ĳæ³ķéĻ¢": 6194,
      "çĪ±åĽ½": 6195,
      "æłĳä¸Ĭ": 6196,
      "åĨłèĭ±": 6197,
      "ical": 6198,
      "æ¡Īä»¶": 6199,
      "çĻ»åľº": 6200,
      "éĤ£éĩĮ": 6201,
      "è¯Ħä¼°": 6202,
      "1941": 6203,
      "æ´Ľåħĭ": 6204,
      "å¾ĭå¸Ī": 6205,
      "1975": 6206,
      "1978": 6207,
      "å®Ŀåı¯æ¢¦": 6208,
      "é¢Ħæµĭ": 6209,
      "ä¼¼ä¹İ": 6210,
      "1955": 6211,
      "è½¯ä½ĵ": 6212,
      "å»¶éķ¿": 6213,
      "éĩĩçĶ¨äºĨ": 6214,
      "çħ§çīĩ": 6215,
      "ç»ĦæĪĲçļĦ": 6216,
      "å®ĥä»¬çļĦ": 6217,
      "å½¢æĪĲçļĦ": 6218,
      "éĢĤåºĶ": 6219,
      "æ²Łè°·": 6220,
      "éĻĦè¿ĳçļĦ": 6221,
      "æ£Ģå¯Ł": 6222,
      "åħħæ»¡": 6223,
      "è¯īè®¼": 6224,
      "tern": 6225,
      "æĴŀåĩ»": 6226,
      "æģĴæĺŁ": 6227,
      "è¿Ļæł·çļĦ": 6228,
      "èļģèĽĽ": 6229,
      "æĲľç´¢": 6230,
      "æĸ¯æĭīå¤«": 6231,
      "ç¿Įå¹´": 6232,
      "æĻ®é²ģå£«": 6233,
      "rosoft": 6234,
      "æĳ©çĻ»å®¶åºŃ": 6235,
      "å´Ķä¸ĸå®ī": 6236,
      "ä¼Ĭèĥ½éĿĻ": 6237,
      "éŁ¦åģ¥å£«": 6238,
      "RS": 6239,
      "ial": 6240,
      "å®ł": 6241,
      "åľ¨åĨħçļĦ": 6242,
      "äººåĴĮ": 6243,
      "æĭ¼": 6244,
      "çĶŁçļĦ": 6245,
      "æ²ª": 6246,
      "ä¸įæķĮ": 6247,
      "çļĦæ¡": 6248,
      "åĩºéģĵ": 6249,
      "åĩºåĶ®": 6250,
      "è¥¿æĸ¯": 6251,
      "ç±³äºļ": 6252,
      "ä»ĸä¸º": 6253,
      "ä»ĸæĽ¾": 6254,
      "æľ¬ä½ĵ": 6255,
      "ä¸»åĬŀ": 6256,
      "èĢĮä¸įæĺ¯": 6257,
      "åĿª": 6258,
      "èĪŁ": 6259,
      "æĮĸ": 6260,
      "ä»»èģĮ": 6261,
      "å®ļä½į": 6262,
      "éĥ½åŁİ": 6263,
      "çł²": 6264,
      "éĢļè®¯": 6265,
      "æŃ£éĿ¢": 6266,
      "æıĲå¡ŀæĭī": 6267,
      "å¦Ĥä»Ĭ": 6268,
      "éĿĴå²Ľ": 6269,
      "erv": 6270,
      "çĭĻ": 6271,
      "æ¶ħ": 6272,
      "å®ŀè¡Į": 6273,
      "åĮħåĽ´": 6274,
      "æİ¥èĳĹ": 6275,
      "ä¼łéĢģ": 6276,
      "åĲĦä¸ª": 6277,
      "æĿĳæĿĳ": 6278,
      "åĽŀå½Ĵ": 6279,
      "æīĵç®Ĺ": 6280,
      "ç¦ıåĪ©": 6281,
      "æ³¢ç½Ĺ": 6282,
      "ark": 6283,
      "æĶ¶éĽĨ": 6284,
      "è®¸åı¯": 6285,
      "åħ¶ä¸Ńä¸Ģç§į": 6286,
      "çĪ±æĥħ": 6287,
      "å¥¹åľ¨": 6288,
      "ä¼ĬæľĹ": 6289,
      "éĩİçī¡ä¸¹": 6290,
      "åĩĨç¡®": 6291,
      "çªĹ": 6292,
      "çľŁä¸»": 6293,
      "ç»§ä½į": 6294,
      "åıĳçİ°çļĦ": 6295,
      "æ¹ĸåĮĹçŃīåľ°": 6296,
      "row": 6297,
      "æī§å¯¼": 6298,
      "åħ¨åĽ½éĩįçĤ¹": 6299,
      "åĨľæ°ĳ": 6300,
      "æĶ¿æ²»äººçī©": 6301,
      "æµĻæ±ŁçŃīåľ°": 6302,
      "çĶŁäº§çļĦ": 6303,
      "ĠThe": 6304,
      "ä»¥ä¸ĭçļĦ": 6305,
      "éĶĢéĩı": 6306,
      "çģŃç»Ŀ": 6307,
      "æĿīçŁ¶": 6308,
      "éĢĶä¸Ń": 6309,
      "æ··åĲĪ": 6310,
      "å«¡": 6311,
      "ä¹Ķæľ¨": 6312,
      "å¤§éĩıçļĦ": 6313,
      "æ´ªæŃ¦": 6314,
      "èĢģé¹³èįīå±ŀçļĦæ¤įçī©": 6315,
      "ect": 6316,
      "åħ¬åħĥåīį": 6317,
      "çĦ¦çĤ¹": 6318,
      "éªĳå£«åĽ¢": 6319,
      "æ¯ģçģŃåħ¬çĪµ": 6320,
      "çĪ±å°Ķåħ°": 6321,
      "çŀĦåĩĨ": 6322,
      "'s": 6323,
      "AèģĶèµĽ": 6324,
      "JR": 6325,
      "PP": 6326,
      "ai": 6327,
      "her": 6328,
      "©¹": 6329,
      "è©¹": 6330,
      "çļĦä¸ľ": 6331,
      "ä¹¾": 6332,
      "å¸ĸ": 6333,
      "ä¸ºå¤§": 6334,
      "ä¸Ģå®¶": 6335,
      "ä¸ĢèģĮ": 6336,
      "å¼¦": 6337,
      "å¤§è§Ħæ¨¡": 6338,
      "æľīèĳĹ": 6339,
      "æĭĸ": 6340,
      "åĪĨéħį": 6341,
      "è¾Ł": 6342,
      "éķ¿åı¶": 6343,
      "è´ª": 6344,
      "1912": 6345,
      "è¡Įäºº": 6346,
      "ä»ĸè¿ĺ": 6347,
      "èĭĭ": 6348,
      "æľĢä½İ": 6349,
      "æĮĿ": 6350,
      "æĸĩèīº": 6351,
      "ä¸īåĽ½": 6352,
      "ä¹Łä¸į": 6353,
      "è½¦çļĦ": 6354,
      "é¡·": 6355,
      "çķħ": 6356,
      "æ¡¦": 6357,
      "å¤ĸåĽ´": 6358,
      "åħ¥äºĨ": 6359,
      "åĽĽåįģ": 6360,
      "åħ¨ä½ĵ": 6361,
      "ä¸¤æĿ¡": 6362,
      "çİĭåŃĲ": 6363,
      "åİŁåŀĭ": 6364,
      "å°¼å°Ķ": 6365,
      "åŁİå¢Ļ": 6366,
      "çº¦åħĭ": 6367,
      "å¦ĤåĲĮ": 6368,
      "åįİè¯Ń": 6369,
      "åĲĳéĺ³": 6370,
      "åı°æ¹¾çļĦ": 6371,
      "å¥³ä¸»è§Ĵ": 6372,
      "æ¸¯åı£": 6373,
      "æľ¨çĵľ": 6374,
      "çľģäºº": 6375,
      "ä¸ĩèĭ±éķĳ": 6376,
      "äº¤çķĮ": 6377,
      "éªĹ": 6378,
      "åĽŀåºĶ": 6379,
      "åĲīä»ĸ": 6380,
      "æŃĮåĶ±": 6381,
      "èĪªçıŃ": 6382,
      "çº¢æĹĹ": 6383,
      "åĽ½å®¶çļĦ": 6384,
      "æł¹æľ¬": 6385,
      "å®¢æľº": 6386,
      "è§ĤéŁ³": 6387,
      "èħ°": 6388,
      "èĢģæĮĿ": 6389,
      "é¥¼": 6390,
      "ä¸ĥå¹´": 6391,
      "åĲĮæĹ¶ä¹Ł": 6392,
      "æĹ©å¹´": 6393,
      "æ´Ľä¼Ĳ": 6394,
      "æ´ĽæĿīçŁ¶": 6395,
      "ãĥ»": 6396,
      "1965": 6397,
      "çĩ¥": 6398,
      "åĺĽ": 6399,
      "åĨľçĶ°": 6400,
      "æĵ¦": 6401,
      "å¿ħè¦ģ": 6402,
      "ä¼ĺç§Ģ": 6403,
      "ä¸ľåĮĹéĥ¨": 6404,
      "é½Ĳå°Ķ": 6405,
      "èĤīé£ŁæĢ§": 6406,
      "å®¡åĪ¤": 6407,
      "æŁ±åħ°": 6408,
      "å®ŀéªĮå®¤": 6409,
      "ä¸¾åĬŀçļĦ": 6410,
      "éĿłè¿ĳ": 6411,
      "éĥŃåĨłèĭ±": 6412,
      "ç¬¬åįģä¸ī": 6413,
      "åı°åĮĹå¸Ĥ": 6414,
      "æ®ĸæ°ĳ": 6415,
      "æ¯ĽèĮĽç§ĳéĵ¶èİ²èĬ±": 6416,
      "çī»çīĽåĦ¿èĭĹç§ĳèĢģé¹³èįīå±ŀçļĦæ¤įçī©": 6417,
      "å¡ŀçĲīåı¤": 6418,
      "æ´Ľä¼Ĳåħĭ": 6419,
      "360": 6420,
      "79": 6421,
      "IA": 6422,
      "NER": 6423,
      "çļĦåıĺ": 6424,
      "åľ¨åĮĹäº¬": 6425,
      "ä¸Ģè¯į": 6426,
      "ä¸ĢåĪĩ": 6427,
      "ä¼½": 6428,
      "å±¥": 6429,
      "åĨ¥": 6430,
      "æľīçº¿": 6431,
      "åŃ¦çļĦ": 6432,
      "æµĳ": 6433,
      "æķ¢": 6434,
      "æĹ¥è¢«": 6435,
      "æĹ¥å¼Ģå§ĭ": 6436,
      "åĲİåį«": 6437,
      "æĹ¶è£ħ": 6438,
      "æĪĲå°±": 6439,
      "ä¸Ĭæĸ¹": 6440,
      "è¥Ħ": 6441,
      "æĸ¯éĩĮ": 6442,
      "æİł": 6443,
      "åħ¬çº¦": 6444,
      "å¹¶ä¸İ": 6445,
      "å¹¶è¢«": 6446,
      "çĽ®çļĦæĺ¯": 6447,
      "æĸ¹æĸĩ": 6448,
      "ä¸ľåįĹéĥ¨": 6449,
      "èĤ¢": 6450,
      "äºĮæ¬¡": 6451,
      "å®ļå¾ĭ": 6452,
      "å½ĵå¤©": 6453,
      "ç¥ł": 6454,
      "ä¸¤å¹´": 6455,
      "åĪ¶å®ļ": 6456,
      "æķĻä¼ļ": 6457,
      "æĺİç¡®": 6458,
      "åŀĭæĢģ": 6459,
      "è¾¾å°Ķ": 6460,
      "å·²æľī": 6461,
      "å½¢çĬ¶": 6462,
      "åı¶çīĩ": 6463,
      "æ±ŁæĪ·": 6464,
      "æĹłæŁ±åħ°": 6465,
      "åĪĨå¸ĥäºİæľĿé²ľ": 6466,
      "ãģĭ": 6467,
      "æ¢£": 6468,
      "ä¿Ŀéļľ": 6469,
      "èı±": 6470,
      "ord": 6471,
      "ç¾İåĽ½äºº": 6472,
      "ä½¿çĶ¨äºĨ": 6473,
      "ond": 6474,
      "ä»¥åıĬä¸ŃåĽ½å¤§éĻĨçļĦåĽĽå·Ŀ": 6475,
      "ä¿¡ä»°": 6476,
      "é»ĳæļĹ": 6477,
      "è®ºæĸĩ": 6478,
      "çĮľ": 6479,
      "åľŁå£¤": 6480,
      "æļ¨": 6481,
      "åĬ©çĲĨ": 6482,
      "æ¦Ħ": 6483,
      "åĪĨå¸ĥäºİä¸ŃåĽ½å¤§éĻĨçļĦåĽĽå·Ŀ": 6484,
      "1940": 6485,
      "åı¯èĥ½ä¼ļ": 6486,
      "è¯ģä¹¦": 6487,
      "åıĳçĶŁäºĨ": 6488,
      "æ¶ĪçģŃ": 6489,
      "çł´ä»ĳ": 6490,
      "çªģçł´": 6491,
      "ç¥¨æĪ¿": 6492,
      "æĭ¿çł´ä»ĳ": 6493,
      "åĨ²éĶĭ": 6494,
      "ç¥ĸçĪ¶": 6495,
      "éĤ¦å¹³": 6496,
      "çĶŁæ´»åľ¨": 6497,
      "éģĹåĿĢ": 6498,
      "1939": 6499,
      "éĺ¶çº§": 6500,
      "äº§çĶŁçļĦ": 6501,
      "æī©å±ķ": 6502,
      "å¸¸çĶŁäºİå±±åĿ¡": 6503,
      "æ±ŁèĭıèĪľå¤©": 6504,
      "ç¬¬åįģä¸Ģå±Ĭ": 6505,
      "æİ¢æµĭ": 6506,
      "ä¸ŃåĽ½å¤§éĻĨçļĦæ±": 6507,
      "æĺĨèĻ«": 6508,
      "é³ŀçīĩ": 6509,
      "æ¤įçī©åĽ¾éī´": 6510,
      "ç¡ķå£«": 6511,
      "æŁ´æ²¹æľºè½¦": 6512,
      "åĸĩåĺĽ": 6513,
      "å½ĹæĺŁ": 6514,
      "Microsoft": 6515,
      "1200": 6516,
      "750": 6517,
      "Ed": 6518,
      "Le": 6519,
      "NA": 6520,
      "ael": 6521,
      "cn": 6522,
      "my": 6523,
      "up": 6524,
      "ĠX": 6525,
      "Ġæĺ¯": 6526,
      "çļĦåıĳ": 6527,
      "çļĦåĽ½éĻħ": 6528,
      "çļĦéĥ¨åĪĨ": 6529,
      "çļĦåŃĺåľ¨": 6530,
      "çļĦåĬŁèĥ½": 6531,
      "åľ¨æĸ°": 6532,
      "åľ¨èĭ±åĽ½": 6533,
      "ä¸ºæ¯ĽèĮĽç§ĳç¿łéĽĢå±ŀçļĦæ¤įçī©": 6534,
      "å±Ī": 6535,
      "æĹ¥æŃ£å¼ı": 6536,
      "æĹ¶æĬ¥": 6537,
      "ä¸ŃåĽ½åĬ³åĬ¨": 6538,
      "ä¸įè¯¦": 6539,
      "è¥¿å¤ªå¹³æ´ĭ": 6540,
      "éĥ¨éĥ¨éķ¿": 6541,
      "å±±åİ¿": 6542,
      "ä¸ĭä»¤": 6543,
      "åı¯è§ģ": 6544,
      "èį«": 6545,
      "èįĶ": 6546,
      "å§Ĭ": 6547,
      "åŃĲå¥³": 6548,
      "æĸ¹è¨Ģ": 6549,
      "å¯¹å¤ĸ": 6550,
      "è¿ĻéĩĮ": 6551,
      "æĮ¡": 6552,
      "å¾ĹåĲį": 6553,
      "çĶµè½¦": 6554,
      "æĪĺéĺŁ": 6555,
      "å¤©æ°Ķ": 6556,
      "ç§°ä¹ĭ": 6557,
      "éĵŃ": 6558,
      "é©¬åħĭ": 6559,
      "å·²äºİ": 6560,
      "éĢīåĩº": 6561,
      "åĢ¡": 6562,
      "æĹłè®º": 6563,
      "è±¹": 6564,
      "éĴ®": 6565,
      "æĶ¹è¿Ľ": 6566,
      "æľĿå»·": 6567,
      "æīĭåĨĮ": 6568,
      "æĦıè¯Ĩ": 6569,
      "äº¤æ±ĩ": 6570,
      "æĽ´æį¢": 6571,
      "æīĵè¿Ľ": 6572,
      "æ¸¸æ³³": 6573,
      "éĽĦèķĬ": 6574,
      "åį°æ¬§": 6575,
      "åĳ¨åĪĬ": 6576,
      "å®¢æĪ·": 6577,
      "æĶ¶èĹı": 6578,
      "æĻ®æŁ¥": 6579,
      "å¤įåħ´": 6580,
      "æĹıç¾¤": 6581,
      "åľ£æĸĹå£«": 6582,
      "ick": 6583,
      "éħįå¤ĩ": 6584,
      "æĤ¼": 6585,
      "å¢ŀéķ¿": 6586,
      "ä»įåľ¨": 6587,
      "è¶³çĲĥéĺŁ": 6588,
      "èį¯çī©": 6589,
      "è¿ĶæĬµ": 6590,
      "éĻµèıľ": 6591,
      "å»ºç«ĭäºĨ": 6592,
      "éĢĶç»ı": 6593,
      "æļ´åĬĽ": 6594,
      "äº¿ç¾İåħĥ": 6595,
      "åį±éĻ©": 6596,
      "é¼ĵåĬ±": 6597,
      "å¾¡åı²": 6598,
      "åīĳæ¡¥": 6599,
      "éŀĭ": 6600,
      "èįĴæ¼ł": 6601,
      "åĸ·å°Ħ": 6602,
      "åŀĴæīĵ": 6603,
      "å®ªæ³ķ": 6604,
      "è¹Ī": 6605,
      "åĹ£ä½į": 6606,
      "èĳ¡èĲĦçīĻ": 6607,
      "æŀ¢çº½": 6608,
      "è¥¿éĹ¨åŃĲ": 6609,
      "æ¯ĽèĮĽç§ĳéĵ¶èİ²èĬ±å±ŀçļĦæ¤įçī©": 6610,
      "NERV": 6611,
      "ä¸ŃåĽ½åĬ³åĬ¨åįıä¼ļ": 6612,
      "86": 6613,
      "91": 6614,
      "AK": 6615,
      "Be": 6616,
      "ire": 6617,
      "ly": 6618,
      "åĲĬ": 6619,
      "å¹´åĴĮ": 6620,
      "ä¸ŃæľĢ": 6621,
      "ä¸Ńä¸ľ": 6622,
      "ä¸ºæŃ¤": 6623,
      "åĮª": 6624,
      "å¤§éĥ¨ä»½": 6625,
      "åľ°è´¨": 6626,
      "æľīè®¸å¤ļ": 6627,
      "äººæĿĥ": 6628,
      "éķ¿åŃĲ": 6629,
      "å¥¶": 6630,
      "ä¸ŃåĽ½é«ĺçŃī": 6631,
      "æ¯ħ": 6632,
      "å¿½": 6633,
      "ä¸ĭè½½": 6634,
      "èĪĨ": 6635,
      "èĩªæŃ¤": 6636,
      "èĩªç§°": 6637,
      "åĬłä»¥": 6638,
      "æĸĩçĮ®": 6639,
      "ç©Ĺ": 6640,
      "å¼ķåıĳ": 6641,
      "èµĽä¸Ń": 6642,
      "æĪĺä¸Ń": 6643,
      "è·¯åı£": 6644,
      "çº¿ä¸Ĭ": 6645,
      "åħ¨åŀĴæīĵ": 6646,
      "å¸¸åĬ¡": 6647,
      "å¹³è¡Į": 6648,
      "çĲĨçĶ±": 6649,
      "æĢ§èĥ½": 6650,
      "ç»Ħå»º": 6651,
      "è£¸": 6652,
      "éĿĴå°ĳå¹´": 6653,
      "éĺ¿éĩĮ": 6654,
      "é¦ĸé¢Ĩ": 6655,
      "éĩıçļĦ": 6656,
      "åı¯ä»¥æĺ¯": 6657,
      "å¤ĦçļĦ": 6658,
      "å§ĶéĻµèıľ": 6659,
      "ä¼łæķĻ": 6660,
      "è§Ĩé¢ĳ": 6661,
      "æĦıåĳ³": 6662,
      "äºĶåįģ": 6663,
      "ç²¹": 6664,
      "ç¤¾åĽ¢": 6665,
      "åİĨä»»": 6666,
      "åħĪç«¯": 6667,
      "åķĨåĵģ": 6668,
      "å®Įå·¥": 6669,
      "å±Ģéķ¿": 6670,
      "æħİ": 6671,
      "æİ¨å¹¿": 6672,
      "æİĴè¡Į": 6673,
      "åĩłåĨħäºļ": 6674,
      "é«ĺéĽĦæ¸¯": 6675,
      "éĩĩè®¿": 6676,
      "isc": 6677,
      "æĬķéĻį": 6678,
      "1964": 6679,
      "éĻĦå±ŀ": 6680,
      "è´ĿåĪ©": 6681,
      "è¿ľä¸ľ": 6682,
      "ite": 6683,
      "æıĲä¾ĽäºĨ": 6684,
      "æİĪæĿĥ": 6685,
      "åºĨç¥Ŀ": 6686,
      "çıłæ±Ł": 6687,
      "æĲ¬": 6688,
      "åŁĥåıĬ": 6689,
      "ç¦ıå»ºçŃīåľ°": 6690,
      "ç£º": 6691,
      "æĪĲåĬŁçļĦ": 6692,
      "èĪŀè¹Ī": 6693,
      "å¹³æĸ¹èĭ±éĩĮ": 6694,
      "ãĢĭï¼Ī\"": 6695,
      "ust": 6696,
      "å®ĭåºĨ": 6697,
      "idi": 6698,
      "å·¥ä¸ļåĮº": 6699,
      "åŃĻåı¯": 6700,
      "æ¹ĸåįĹçŃīåľ°": 6701,
      "æ¿Ĵ": 6702,
      "åĪºæ¿Ģ": 6703,
      "ä¹Ļçĥ¯": 6704,
      "å½ĵåľ°çļĦ": 6705,
      "æĬµæĬĹ": 6706,
      "éŃıéĤ¦å¹³": 6707,
      "act": 6708,
      "æ¾³éĹ¨å·´å£«": 6709,
      "çļĦæĬĢ": 6710,
      "èµ¢å¾ĹäºĨ": 6711,
      "åĨħèĴĻåı¤çŃīåľ°": 6712,
      "çĤ®åı°": 6713,
      "çļĦæ¸©": 6714,
      "æº¶åīĤ": 6715,
      "çļĦæİ¨": 6716,
      "æľ¬é±¼ä½ĵ": 6717,
      "å®¢è¿Ĳä¸ĵçº¿": 6718,
      "ä¸ľåįĹäºļ": 6719,
      "èĤ¿çĺ¤": 6720,
      "è¾Ĳå°Ħ": 6721,
      "æ¢µè¯Ń": 6722,
      "ohn": 6723,
      "é¢ģå¥ĸåħ¸ç¤¼": 6724,
      "ä¸ŃåĽ½å¤§éĻĨçļĦæ±Ł": 6725,
      "63": 6726,
      "EM": 6727,
      "Mich": 6728,
      "RA": 6729,
      "SC": 6730,
      "af": 6731,
      "ib": 6732,
      "çļĦç¬¬ä¸ī": 6733,
      "çļĦè¯Ŀ": 6734,
      "çļĦæľºä¼ļ": 6735,
      "åľ¨ä¸Ģèµ·": 6736,
      "ç»µ": 6737,
      "çī²": 6738,
      "ä¸ºé£Ł": 6739,
      "æĺ¯å¤§": 6740,
      "æĺ¯ä»İ": 6741,
      "å··": 6742,
      "å¤§å®¶": 6743,
      "å¤§ä½¿": 6744,
      "æĭ¦": 6745,
      "æłİ": 6746,
      "éĢĴ": 6747,
      "åŁĭ": 6748,
      "åĪĨè£Ĥ": 6749,
      "çļĦæļ": 6750,
      "åįĹæµ·": 6751,
      "æĸ¯çļĦ": 6752,
      "æĸ¯åį¡": 6753,
      "åıĳæĺİ": 6754,
      "å¹¶åħ¥": 6755,
      "å®¶ä¹¡": 6756,
      "æ³ķæĭī": 6757,
      "çĲĥè¿·": 6758,
      "åĬłéĢŁ": 6759,
      "æŀĹåĬłæĭī": 6760,
      "è¿Ľåı£": 6761,
      "æ¡Ķ": 6762,
      "ä½Ĩä»ĸ": 6763,
      "åħĭéĩĮæĸ¯": 6764,
      "éĩįè§Ĩ": 6765,
      "ä¸Ģä¸ªä¸ŃåĽ½": 6766,
      "ç¥¸": 6767,
      "å¹³éĿ¢": 6768,
      "è®¾åľ¨": 6769,
      "åĪ¶æĪĲ": 6770,
      "è¯¥åī§": 6771,
      "çĽ¸åºĶ": 6772,
      "æ¼Ĩ": 6773,
      "è¯ŃéŁ³": 6774,
      "éĤª": 6775,
      "åħ³å²Ľ": 6776,
      "åįİä¸ľ": 6777,
      "æĢ»ç»ıçĲĨ": 6778,
      "è±ļ": 6779,
      "ç¿ħ": 6780,
      "åı¤èĢģ": 6781,
      "éķĩä¸ĭè¾ĸä»¥ä¸ĭåľ°åĮº": 6782,
      "äº¤ç»Ļ": 6783,
      "äº¤ä»ĺ": 6784,
      "èº«äº¡": 6785,
      "èĭıäºļ": 6786,
      "é£İçĲ´": 6787,
      "æ²Ļä¸ĺ": 6788,
      "æ¸ħä»£": 6789,
      "ç¥ŀçĪ¶": 6790,
      "ç¥ŀè¯Ŀ": 6791,
      "èµĦåĬ©": 6792,
      "è§Ĥåħī": 6793,
      "ãĤī": 6794,
      "å¥½è¯Ħ": 6795,
      "åĵĪæĭī": 6796,
      "å®£è¨Ģ": 6797,
      "éºŁ": 6798,
      "ä¸ĽæŀĹ": 6799,
      "ä¸Ńå¤®äººæ°ĳæĶ¿åºľ": 6800,
      "1963": 6801,
      "å¾®è½¯": 6802,
      "è¯¥çī©ç§įçļĦæ¨¡å¼ıäº§åľ°åľ¨æĹ¥æľ¬": 6803,
      "å·¦ç¿¼": 6804,
      "æľ«æľŁ": 6805,
      "é¡ºåĪ©": 6806,
      "æ¯ķä¸ļåĲİ": 6807,
      "éĢłæĪĲçļĦ": 6808,
      "çĭ¬ç«ĭçļĦ": 6809,
      "èİ«æĸ¯ç§ĳ": 6810,
      "åĮħåĲ«äºĨ": 6811,
      "ä¸ĢèĪ¬çĶŁéķ¿åľ¨å±±åĿ¡": 6812,
      "è®²è¿°": 6813,
      "èģĮä¸ļçĶŁæ¶¯": 6814,
      "äº®çĽ¸": 6815,
      "åºŁéĻ¤": 6816,
      "åģ¶åĥı": 6817,
      "ç¬¬äºĮæ¬¡ä¸ĸçķĮå¤§æĪĺ": 6818,
      "æº¶æ¶²": 6819,
      "æģĲé¾Ļ": 6820,
      "æĥħåĨµä¸ĭ": 6821,
      "åįģäºĮå¹´": 6822,
      "pera": 6823,
      "æĿŃå·ŀ": 6824,
      "æļĤæĹ¶": 6825,
      "åĿĳæĿĳ": 6826,
      "å¤§æ°Ķå±Ĥ": 6827,
      "åĢ¾åĲĳ": 6828,
      "æĬĳåĪ¶": 6829,
      "çº¤ç»´": 6830,
      "äºĭå®ŀä¸Ĭ": 6831,
      "è½°çĤ¸æľº": 6832,
      "çİ¯çĬ¶è½»è½¨": 6833,
      "ä¸ŃåĽ½é«ĺçŃīæ¤įçī©åĽ¾éī´": 6834,
      "å®ĭåºĨé¾Ħ": 6835,
      "83": 6836,
      "89": 6837,
      "92": 6838,
      "CA": 6839,
      "PA": 6840,
      "VD": 6841,
      "ex": 6842,
      "ld": 6843,
      "Î±": 6844,
      "Ġä»¶": 6845,
      "çļĦè¥¿": 6846,
      "çļĦæľº": 6847,
      "çļĦè¡¨çİ°": 6848,
      "äº¥": 6849,
      "æĹ·": 6850,
      "å¹´äººåı£": 6851,
      "åŃķ": 6852,
      "ä¼ª": 6853,
      "ï¼īï¼Ľ": 6854,
      "å¤§åĨĽ": 6855,
      "å¤§åį«": 6856,
      "è¯ı": 6857,
      "æī³": 6858,
      "æīĩ": 6859,
      "èĩĤ": 6860,
      "æľĪèµ·": 6861,
      "åĲįèªī": 6862,
      "äºĨå¯¹": 6863,
      "äºĨä¸ĢäºĽ": 6864,
      "æ²®": 6865,
      "æĹ¶æ®µ": 6866,
      "1919": 6867,
      "åĮºåĪ«": 6868,
      "åįĹç«Ļ": 6869,
      "åīįéĶĭ": 6870,
      "æĬĦ": 6871,
      "è¢«æįķ": 6872,
      "åĿł": 6873,
      "åĬ¨åĳĺ": 6874,
      "çŁĽ": 6875,
      "åĲĮåĲį": 6876,
      "æĸĩæĺİ": 6877,
      "è½¦éĻĤ": 6878,
      "æīĢå±ŀ": 6879,
      "å°ıæıĲçĲ´": 6880,
      "å¦Ī": 6881,
      "éĩĮåħĭ": 6882,
      "æ¡Ĳ": 6883,
      "åħĭèİ±": 6884,
      "å¹³å®ī": 6885,
      "é©¬èĲ¨": 6886,
      "éĥ½åľ¨": 6887,
      "è¯¥åĽ½": 6888,
      "åŁºæ²»": 6889,
      "æĺİæĺŁ": 6890,
      "åı¶æ¦ķ": 6891,
      "éĴ§": 6892,
      "ãģ£": 6893,
      "å°±æľī": 6894,
      "å°±åı¯ä»¥": 6895,
      "çĽ´æĴŃ": 6896,
      "çº§èģĶèµĽ": 6897,
      "æĶ¹ç§°": 6898,
      "è¿ĺåİŁ": 6899,
      "èİ·å¥ĸ": 6900,
      "æĮĩç¤º": 6901,
      "èĭıæł¼åħ°": 6902,
      "åĪĨå¸ĥåľ¨åį°åº¦": 6903,
      "è§ģåĪ°": 6904,
      "åĭĺ": 6905,
      "å¥ĸéĩĳ": 6906,
      "æ²Ļåľ°": 6907,
      "åħ·å¤ĩ": 6908,
      "çłĶåıĳ": 6909,
      "æĪıéĻ¢": 6910,
      "åħ¶ä¸Ńä¸Ģ": 6911,
      "å®ģæ³¢": 6912,
      "æİ¨è¿Ľ": 6913,
      "ä¿Ħè¯Ń": 6914,
      "æĹ©ä¸Ĭ": 6915,
      "1977": 6916,
      "1962": 6917,
      "é¢Ħå¤ĩ": 6918,
      "åĮ»çĶŁ": 6919,
      "èĸª": 6920,
      "è¿½é£İ": 6921,
      "å·¥ç¨ĭå¸Ī": 6922,
      "è¯ĳä¸º": 6923,
      "æķĮäºº": 6924,
      "è§īå¾Ĺ": 6925,
      "ä¼łç»ŁçļĦ": 6926,
      "å¹¿å·ŀå¸Ĥ": 6927,
      "çĽ¸åħ³çļĦ": 6928,
      "éĩĳæŃ£æĹ¥": 6929,
      "åĪ¶éĢłåķĨ": 6930,
      "ç«ŀéĢī": 6931,
      "è´§è¿Ĳ": 6932,
      "åı«åģļ": 6933,
      "ç½ķè§ģ": 6934,
      "over": 6935,
      "ä¸Ļéħ®": 6936,
      "Ġ*-": 6937,
      "ç§ĳçļĦåħ¶ä¸Ńä¸Ģç§į": 6938,
      "åĨ²éĶĭæŀª": 6939,
      "An": 6940,
      "Ess": 6941,
      "OM": 6942,
      "Opera": 6943,
      "mer": 6944,
      "Ġn": 6945,
      "Ġre": 6946,
      "çļĦåľ°åĮº": 6947,
      "çļĦæĪĲåĳĺ": 6948,
      "çļĦçĪ¶äº²": 6949,
      "çĶ¬": 6950,
      "åľ¨åįĹ": 6951,
      "å¹´ä¸Ń": 6952,
      "ä¸ºæ¡ĳç§ĳæ¦ķå±ŀçļĦæ¤įçī©": 6953,
      "æĺ¯æľī": 6954,
      "äºİæŃ¤": 6955,
      "åĨķ": 6956,
      "å¤§éĺª": 6957,
      "åľ°ä¸įå®¹": 6958,
      "åĩ¶": 6959,
      "æŃĩ": 6960,
      "æ³¼": 6961,
      "ä¸Ĭè¯ī": 6962,
      "ä¸ĬåįĪ": 6963,
      "1914": 6964,
      "å¸ĥç½Ĺ": 6965,
      "ä½ľä¸ļ": 6966,
      "åħ¬åĬ¡": 6967,
      "ä¸ĭéĿ¢": 6968,
      "é«ĺåĬł": 6969,
      "èį¡": 6970,
      "èī½": 6971,
      "åĮĹåĮº": 6972,
      "é»Ķ": 6973,
      "å¼Ģè®¾": 6974,
      "çİ°å·²": 6975,
      "å¼ķçĶ¨": 6976,
      "æĶ¿éĻ¢": 6977,
      "è°Ĭ": 6978,
      "å®ļæľŁ": 6979,
      "åĲĪåħ±": 6980,
      "åĲĪåĶ±": 6981,
      "èĲį": 6982,
      "ç¥Ģ": 6983,
      "å¤©åĲİ": 6984,
      "å¹³æĶ¿éĻ¢": 6985,
      "é©¬è·¯": 6986,
      "åħ°ç»ı": 6987,
      "è£ķ": 6988,
      "æĢ»ä¼ļ": 6989,
      "åĪĨå¸ĥäºİè¶ĬåįĹ": 6990,
      "é¦ĸä¸ª": 6991,
      "çĭį": 6992,
      "æ¼Ķå¥ı": 6993,
      "åı¤åħ°ç»ı": 6994,
      "å¤ĦåĨ³": 6995,
      "å®ĥåľ¨": 6996,
      "åİ¿çļĦ": 6997,
      "ç»´ä¿®": 6998,
      "åł¤": 6999,
      "ç¬¬ä¸Ģå±Ĭ": 7000,
      "åķ¡": 7001,
      "è¿ĳå¹´": 7002,
      "æľ¯è¯Ń": 7003,
      "èĪ¬è¿ªäºļ": 7004,
      "å¥ĸåĬ±": 7005,
      "æ¸ħæ¥ļ": 7006,
      "åķĨäºº": 7007,
      "å¼ºçļĦ": 7008,
      "è´¨çĸĳ": 7009,
      "èħĶ": 7010,
      "ãĤ¹": 7011,
      "åľ£æ®¿": 7012,
      "æĿ¾å¹³": 7013,
      "å³Ń": 7014,
      "å¹²çĩ¥": 7015,
      "å®Ŀå¡Ķ": 7016,
      "1969": 7017,
      "ä¾Ŀèµĸ": 7018,
      "ç¬¬ä¸īæ¬¡": 7019,
      "æ¶Īæģ¯": 7020,
      "éĹ®é¢ĺçļĦ": 7021,
      "èµ°åĲĳ": 7022,
      "éĽħåħ¸": 7023,
      "æĪĺäºīä¸Ń": 7024,
      "æĽ¿ä»£": 7025,
      "å¤ļçĶŁäºİå±±åĿ¡": 7026,
      "ä¸Ńåįİäººæ°ĳåħ±åĴĮåĽ½ç¬¬åįģä¸Ģå±Ĭ": 7027,
      "çĶµåŃĲæ¸¸æĪı": 7028,
      "èŀįåĲĪ": 7029,
      "åĶ±çīĩåħ¬åı¸": 7030,
      "çļĦæĦŁ": 7031,
      "éĵľäºº": 7032,
      "æº¶äºİ": 7033,
      "é©±åĬ¨": 7034,
      "ç§ŁçķĮ": 7035,
      "çĴĥ": 7036,
      "å½¼æŃ¤": 7037,
      "ç»ĺçĶ»": 7038,
      "è²Ĥ": 7039,
      "åħĨä¸ļ": 7040,
      "åŁºçĿ£æķĻ": 7041,
      "ãģĹãģ¦": 7042,
      "ç¦¾æľ¬ç§ĳ": 7043,
      "åĸīéŁ³": 7044,
      "èĭıäºļç´ł": 7045,
      "650": 7046,
      "Qu": 7047,
      "ck": 7048,
      "ĠâĢľ": 7049,
      "çļĦæīĭ": 7050,
      "çļĦè§Ĵèī²": 7051,
      "ä»ķ": 7052,
      "åĲĲ": 7053,
      "æĸ©": 7054,
      "è¿¦": 7055,
      "åľ¨åĨħ": 7056,
      "ä¸Ńè¢«": 7057,
      "ä¸Ģéĥ¨åĪĨ": 7058,
      "åľ°å½¢": 7059,
      "çĽİ": 7060,
      "èĩŃ": 7061,
      "éĢ¼": 7062,
      "æĹ¥æĬµè¾¾": 7063,
      "åĪĨæĪĲ": 7064,
      "åĲİåľ¨": 7065,
      "ä¸Ĭå¸Ĥ": 7066,
      "ä¸įå¤ļ": 7067,
      "çļĦæ¢": 7068,
      "åĩºæĿ¥çļĦ": 7069,
      "åīįè¿Ľ": 7070,
      "éĥ¨ä½ľåĵģ": 7071,
      "æĬĽ": 7072,
      "ä¹ĭå¤Ħ": 7073,
      "å¤ļåĲį": 7074,
      "åħ¬ä¼Ĺ": 7075,
      "çī¹æĭī": 7076,
      "è¢«è§Ĩä¸º": 7077,
      "æľ¬äºº": 7078,
      "æľ¬éĥ¨": 7079,
      "é«ĺå³°": 7080,
      "å¯¹åħ¶": 7081,
      "å¯¹æĸ¹": 7082,
      "æ³ķèĴĤ": 7083,
      "ä»£æĽ¿": 7084,
      "è°į": 7085,
      "æ¡Į": 7086,
      "å¤ĸè§Ĥ": 7087,
      "åħĭå°Ķ": 7088,
      "åħĭåħ°": 7089,
      "å¾·éĵģ": 7090,
      "åħ¨è¿Ĳä¼ļ": 7091,
      "éĵĿ": 7092,
      "çĲĨè§£": 7093,
      "äº§éĩı": 7094,
      "æĦ¤": 7095,
      "è¯¥éķĩ": 7096,
      "æ°´æĺŁ": 7097,
      "å½¢å®¹": 7098,
      "æıĲåıĬ": 7099,
      "æĹłæķĪ": 7100,
      "é¦ĸçĽ¸": 7101,
      "é¦ĸå¸Ń": 7102,
      "åı£å¾Ħ": 7103,
      "ink": 7104,
      "æĦıæĢĿ": 7105,
      "åĲĦå¤§": 7106,
      "ç±»çļĦ": 7107,
      "ä¹¦éĻ¢": 7108,
      "æĮĩå®ļ": 7109,
      "åĪĨå¸ĥåľ¨ç¼ħçĶ¸": 7110,
      "è®¤è¯ģ": 7111,
      "æ°Ķæµģ": 7112,
      "éĿŀæŃ£å¼ı": 7113,
      "ä½įäºİä¸ŃåĽ½": 7114,
      "åķĨåºĹ": 7115,
      "are": 7116,
      "åĪĽå§ĭ": 7117,
      "æĿĥåĪ©": 7118,
      "æłĳçļ®": 7119,
      "éĩİæľ¨çĵľ": 7120,
      "ç¼ĸåĪ¶": 7121,
      "å½ķéŁ³": 7122,
      "å½ķå½±": 7123,
      "é¥²": 7124,
      "å¨ģå¡ŀåħĭæĸ¯": 7125,
      "ä»ħæľī": 7126,
      "æ´Ľéĺ³": 7127,
      "ä¾Ŀçħ§": 7128,
      "ç¡®è®¤": 7129,
      "1954": 7130,
      "èŃ¦æĸ¹": 7131,
      "èĪ¹åıª": 7132,
      "ĠAr": 7133,
      "åİĤåķĨ": 7134,
      "å©´": 7135,
      "å»ºçŃĳçī©": 7136,
      "æ¤ħ": 7137,
      "æį¢ä¹ĺ": 7138,
      "åģľè½¦": 7139,
      "è¯¥çī©ç§įçļĦæ¨¡å¼ıäº§åľ°åľ¨æ¬§æ´²": 7140,
      "ä¹łæĥ¯": 7141,
      "å·¨èŁ¹èĽĽ": 7142,
      "çļĦå¤§åŀĭ": 7143,
      "åŃĺåľ¨äºİ": 7144,
      "ast": 7145,
      "çŃ¾è®¢": 7146,
      "å®¡æŁ¥": 7147,
      "æī©å»º": 7148,
      "èĢ¶å¾ĭ": 7149,
      "ç©Ĩæĸ¯æŀĹ": 7150,
      "ç»Łæ²»èĢħ": 7151,
      "åĩ»è´¥äºĨ": 7152,
      "æİĮæı¡": 7153,
      "æģĲæĢĸ": 7154,
      "å¹¸ç¦ı": 7155,
      "Super": 7156,
      "æ¤ŃåľĨå½¢": 7157,
      "æ³ķåħ°åħĭ": 7158,
      "çļĦæ´»åĬ¨": 7159,
      "lingen": 7160,
      "ä¸ºè¾Ĳé³įé±¼çº²é²Īå½¢çĽ®èĿ´èĿ¶é±¼": 7161,
      "å¥¥æŀĹåĮ¹": 7162,
      "æĸ¯éĩĮåħ°åį¡": 7163,
      "é«ĺåĬłç´¢": 7164,
      "æ³ķèĴĤèµ«": 7165,
      "BS": 7166,
      "IF": 7167,
      "ST": 7168,
      "midi": 7169,
      "oy": 7170,
      "pr": 7171,
      "Ġ7": 7172,
      "åį§": 7173,
      "æĸ¥": 7174,
      "ä¸Ńåı°": 7175,
      "ä¸ºåħ¶": 7176,
      "ç§ĥ": 7177,
      "å¤§æŀĹ": 7178,
      "å¤§è¥¿æ´ĭ": 7179,
      "åľ°äº§": 7180,
      "äºĨä»ĸçļĦ": 7181,
      "åıĬåħ¶ä»ĸ": 7182,
      "1911": 7183,
      "ä¸įçŁ¥": 7184,
      "æĢİ": 7185,
      "éĥ¨ç½²": 7186,
      "ç§įæĹı": 7187,
      "éĽĩ": 7188,
      "ç§ĳå¤«": 7189,
      "çī¹åĦ¿": 7190,
      "çī¹éĽ·": 7191,
      "è·Į": 7192,
      "ä¸»åĬĽ": 7193,
      "æľºåĮ£": 7194,
      "åĨĽåľ¨": 7195,
      "åŃĲçļĦ": 7196,
      "ä¾£": 7197,
      "çŁ¢": 7198,
      "æĸ°å»º": 7199
    },
    "merges": [
      [
        "ï",
        "¼"
      ],
      [
        "ä",
        "¸"
      ],
      [
        "ã",
        "Ģ"
      ],
      [
        "ï¼",
        "Į"
      ],
      [
        "ç",
        "ļ"
      ],
      [
        "çļ",
        "Ħ"
      ],
      [
        "ä",
        "º"
      ],
      [
        "ãĢ",
        "Ĥ"
      ],
      [
        "æ",
        "ľ"
      ],
      [
        "å",
        "ı"
      ],
      [
        "å",
        "ľ"
      ],
      [
        "å",
        "ħ"
      ],
      [
        "å",
        "¤"
      ],
      [
        "ä",
        "»"
      ],
      [
        "å",
        "¹"
      ],
      [
        "å",
        "Ĳ"
      ],
      [
        "å",
        "Ľ"
      ],
      [
        "ç",
        "Ķ"
      ],
      [
        "å",
        "Ī"
      ],
      [
        "ãĢ",
        "ģ"
      ],
      [
        "å",
        "®"
      ],
      [
        "æ",
        "ĺ"
      ],
      [
        "å",
        "į"
      ],
      [
        "ä",
        "½"
      ],
      [
        "æ",
        "Ĺ"
      ],
      [
        "å",
        "°"
      ],
      [
        "æ",
        "ĸ"
      ],
      [
        "è",
        "¿"
      ],
      [
        "åľ",
        "¨"
      ],
      [
        "å¹",
        "´"
      ],
      [
        "ä¸",
        "Ń"
      ],
      [
        "ä",
        "¹"
      ],
      [
        "å",
        "Ń"
      ],
      [
        "ç",
        "»"
      ],
      [
        "åĽ",
        "½"
      ],
      [
        "ç",
        "ī"
      ],
      [
        "å",
        "¸"
      ],
      [
        "ä¸",
        "º"
      ],
      [
        "ä¸",
        "Ģ"
      ],
      [
        "å",
        "Į"
      ],
      [
        "å",
        "Ĭ"
      ],
      [
        "æ",
        "Ī"
      ],
      [
        "ç",
        "§"
      ],
      [
        "æĺ",
        "¯"
      ],
      [
        "å",
        "·"
      ],
      [
        "äº",
        "İ"
      ],
      [
        "å",
        "¼"
      ],
      [
        "ä",
        "¼"
      ],
      [
        "å",
        "±"
      ],
      [
        "å",
        "Ĩ"
      ],
      [
        "ï¼",
        "Ī"
      ],
      [
        "ï¼",
        "ī"
      ],
      [
        "æ",
        "Ŀ"
      ],
      [
        "å¤",
        "§"
      ],
      [
        "è",
        "¯"
      ],
      [
        "åľ",
        "°"
      ],
      [
        "æľ",
        "ī"
      ],
      [
        "äº",
        "º"
      ],
      [
        "è",
        "®"
      ],
      [
        "é",
        "Ļ"
      ],
      [
        "é",
        "ĩ"
      ],
      [
        "å",
        "¾"
      ],
      [
        "å",
        "º"
      ],
      [
        "ç",
        "º"
      ],
      [
        "å",
        "ĩ"
      ],
      [
        "è",
        "¡"
      ],
      [
        "ç",
        "Ľ"
      ],
      [
        "æ",
        "ĭ"
      ],
      [
        "0",
        "0"
      ],
      [
        "æ",
        "ī"
      ],
      [
        "æ",
        "ł"
      ],
      [
        "æ",
        "Ń"
      ],
      [
        "ä»",
        "¥"
      ],
      [
        "åŃ",
        "¦"
      ],
      [
        "è",
        "Ģ"
      ],
      [
        "è",
        "ĩ"
      ],
      [
        "å",
        "Ĵ"
      ],
      [
        "æ",
        "µ"
      ],
      [
        "é",
        "Ģ"
      ],
      [
        "çĶ",
        "Ł"
      ],
      [
        "é",
        "ķ"
      ],
      [
        "é",
        "ĥ"
      ],
      [
        "åĴ",
        "Į"
      ],
      [
        "æ",
        "°"
      ],
      [
        "å",
        "½"
      ],
      [
        "æ",
        "ŀ"
      ],
      [
        "è",
        "µ"
      ],
      [
        "é",
        "ĺ"
      ],
      [
        "å",
        "¯"
      ],
      [
        "æ",
        "Ķ"
      ],
      [
        "æ",
        "ķ"
      ],
      [
        "æĹ",
        "¥"
      ],
      [
        "ç",
        "İ"
      ],
      [
        "å",
        "ī"
      ],
      [
        "å",
        "İ"
      ],
      [
        "å",
        "Ł"
      ],
      [
        "åĪ",
        "Ĩ"
      ],
      [
        "çī",
        "©"
      ],
      [
        "æľ",
        "Ī"
      ],
      [
        "åĲ",
        "İ"
      ],
      [
        "åĲ",
        "į"
      ],
      [
        "è",
        "¾"
      ],
      [
        "ç",
        "Ń"
      ],
      [
        "äº",
        "Ĩ"
      ],
      [
        "æ",
        "²"
      ],
      [
        "æ",
        "³"
      ],
      [
        "ç",
        "±"
      ],
      [
        "è",
        "§"
      ],
      [
        "éķ",
        "¿"
      ],
      [
        "å",
        "ĳ"
      ],
      [
        "ä¼",
        "ļ"
      ],
      [
        "å",
        "¥"
      ],
      [
        "æĹ",
        "¶"
      ],
      [
        "è",
        "½"
      ],
      [
        "è",
        "ĥ"
      ],
      [
        "ç",
        "Ĳ"
      ],
      [
        "é",
        "Ŀ"
      ],
      [
        "â",
        "Ģ"
      ],
      [
        "æĪ",
        "Ĳ"
      ],
      [
        "åı",
        "Ĭ"
      ],
      [
        "ä¸Ń",
        "åĽ½"
      ],
      [
        "è",
        "´"
      ],
      [
        "ä¸",
        "ª"
      ],
      [
        "ä¸",
        "Ĭ"
      ],
      [
        "1",
        "9"
      ],
      [
        "ç",
        "«"
      ],
      [
        "æ",
        "¯"
      ],
      [
        "åĮ",
        "º"
      ],
      [
        "ä¸",
        "į"
      ],
      [
        "é",
        "Ĺ"
      ],
      [
        "çĶ",
        "±"
      ],
      [
        "ï¼",
        "ļ"
      ],
      [
        "çļĦ",
        "æ"
      ],
      [
        "çŃ",
        "ī"
      ],
      [
        "åį",
        "Ĺ"
      ],
      [
        "æ",
        "Ģ"
      ],
      [
        "åĩ",
        "º"
      ],
      [
        "è",
        "¥"
      ],
      [
        "è¥",
        "¿"
      ],
      [
        "åī",
        "į"
      ],
      [
        "ç±",
        "³"
      ],
      [
        "è¡",
        "Į"
      ],
      [
        "ä»",
        "ĸ"
      ],
      [
        "ç",
        "¬"
      ],
      [
        "éĥ",
        "¨"
      ],
      [
        "æ",
        "´"
      ],
      [
        "æµ",
        "·"
      ],
      [
        "ç§",
        "į"
      ],
      [
        "è",
        "¢"
      ],
      [
        "æĸ",
        "¯"
      ],
      [
        "æ",
        "Ĭ"
      ],
      [
        "æ",
        "¸"
      ],
      [
        "ä¸",
        "İ"
      ],
      [
        "ä¹",
        "ĭ"
      ],
      [
        "å±",
        "±"
      ],
      [
        "åı",
        "ĳ"
      ],
      [
        "å¸",
        "ĥ"
      ],
      [
        "å·",
        "¥"
      ],
      [
        "çĶ",
        "¨"
      ],
      [
        "é",
        "Ľ"
      ],
      [
        "åħ",
        "¶"
      ],
      [
        "å¤",
        "ļ"
      ],
      [
        "ä",
        "¿"
      ],
      [
        "åĪ",
        "°"
      ],
      [
        "ä½",
        "ľ"
      ],
      [
        "ç",
        "½"
      ],
      [
        "æ",
        "Ľ"
      ],
      [
        "æ",
        "İ"
      ],
      [
        "è",
        "Ĭ"
      ],
      [
        "åħ",
        "¬"
      ],
      [
        "ç¬",
        "¬"
      ],
      [
        "ç§",
        "ĳ"
      ],
      [
        "çī",
        "¹"
      ],
      [
        "¤",
        "į"
      ],
      [
        "é",
        "ģ"
      ],
      [
        "2",
        "00"
      ],
      [
        "æ",
        "±"
      ],
      [
        "å",
        "¿"
      ],
      [
        "è¢",
        "«"
      ],
      [
        "èĩ",
        "³"
      ],
      [
        "æ",
        "¬"
      ],
      [
        "è",
        "·"
      ],
      [
        "ç",
        "¾"
      ],
      [
        "æľ",
        "¬"
      ],
      [
        "¤į",
        "çī©"
      ],
      [
        "ä¸",
        "»"
      ],
      [
        "èĢ",
        "Į"
      ],
      [
        "ä¸",
        "ĭ"
      ],
      [
        "é",
        "«"
      ],
      [
        "è",
        "ĭ"
      ],
      [
        "é«",
        "ĺ"
      ],
      [
        "å",
        "Ŀ"
      ],
      [
        "å¹",
        "¶"
      ],
      [
        "è",
        "Ī"
      ],
      [
        "ãĢ",
        "ĭ"
      ],
      [
        "ãĢ",
        "Ĭ"
      ],
      [
        "åı",
        "¯"
      ],
      [
        "æľ",
        "º"
      ],
      [
        "è",
        "į"
      ],
      [
        "åı",
        "°"
      ],
      [
        "é",
        "¢"
      ],
      [
        "å±",
        "ŀ"
      ],
      [
        "é",
        "¦"
      ],
      [
        "å",
        "§"
      ],
      [
        "å°",
        "Ķ"
      ],
      [
        "åĨ",
        "Ľ"
      ],
      [
        "æĿ",
        "¥"
      ],
      [
        "çĽ",
        "®"
      ],
      [
        "å®",
        "¶"
      ],
      [
        "åŃ",
        "Ĳ"
      ],
      [
        "å",
        "»"
      ],
      [
        "ä",
        "¾"
      ],
      [
        "åĬ",
        "¨"
      ],
      [
        "æĸ",
        "¹"
      ],
      [
        "è",
        "ī"
      ],
      [
        "åĮ",
        "Ĺ"
      ],
      [
        "è",
        "ģ"
      ],
      [
        "å",
        "ĵ"
      ],
      [
        "é",
        "»"
      ],
      [
        "å¯",
        "¹"
      ],
      [
        "å¼",
        "Ģ"
      ],
      [
        "å",
        "²"
      ],
      [
        "è¿",
        "Ļ"
      ],
      [
        "æ",
        "¹"
      ],
      [
        "ç",
        "Ł"
      ],
      [
        "åĲ",
        "Į"
      ],
      [
        "æ³",
        "ķ"
      ],
      [
        "æĸ",
        "°"
      ],
      [
        "çĲ",
        "ĥ"
      ],
      [
        "ä½",
        "į"
      ],
      [
        "äº",
        "ļ"
      ],
      [
        "èĩ",
        "ª"
      ],
      [
        "æľ",
        "Ģ"
      ],
      [
        "åĬ",
        "ł"
      ],
      [
        "éĻ",
        "Ĩ"
      ],
      [
        "æ°",
        "ĳ"
      ],
      [
        "ä¸",
        "ľ"
      ],
      [
        "æ",
        "Į"
      ],
      [
        "æŀ",
        "Ĺ"
      ],
      [
        "å¸",
        "Ĥ"
      ],
      [
        "åĳ",
        "ĺ"
      ],
      [
        "å",
        "£"
      ],
      [
        "æĸ",
        "ĩ"
      ],
      [
        "¦",
        "ģ"
      ],
      [
        "ãĢ",
        "Į"
      ],
      [
        "ãĢ",
        "į"
      ],
      [
        "é",
        "©"
      ],
      [
        "ä¸",
        "ī"
      ],
      [
        "ä¹",
        "Ł"
      ],
      [
        "è½",
        "¦"
      ],
      [
        "ç",
        "©"
      ],
      [
        "åľ",
        "º"
      ],
      [
        "è¿",
        "ĩ"
      ],
      [
        "ç¾",
        "İ"
      ],
      [
        "å¾",
        "Ĺ"
      ],
      [
        "è",
        "¶"
      ],
      [
        "åĪĨ",
        "å¸ĥ"
      ],
      [
        "çİ",
        "°"
      ],
      [
        "ä»",
        "£"
      ],
      [
        "åĽ",
        "ł"
      ],
      [
        "æī",
        "Ģ"
      ],
      [
        "ç»",
        "ı"
      ],
      [
        "çĶŁ",
        "éķ¿"
      ],
      [
        "éĺ",
        "Ł"
      ],
      [
        "å°",
        "ı"
      ],
      [
        "Â",
        "·"
      ],
      [
        "å¼",
        "ķ"
      ],
      [
        "æŃ",
        "¤"
      ],
      [
        "2",
        "0"
      ],
      [
        "æĶ",
        "¿"
      ],
      [
        "è",
        "¦ģ"
      ],
      [
        "èĥ",
        "½"
      ],
      [
        "åľ°",
        "åĮº"
      ],
      [
        "åº",
        "¦"
      ],
      [
        "æĭ",
        "ī"
      ],
      [
        "åĨ",
        "ħ"
      ],
      [
        "è",
        "°"
      ],
      [
        "èµ",
        "Ľ"
      ],
      [
        "å»",
        "º"
      ],
      [
        "ç",
        "ľ"
      ],
      [
        "è",
        "Ĥ"
      ],
      [
        "åŃ¦",
        "åĲį"
      ],
      [
        "çĶ",
        "µ"
      ],
      [
        "ï¼ļ",
        "ï¼ī"
      ],
      [
        "ä½",
        "ĵ"
      ],
      [
        "å¤§",
        "éĻĨ"
      ],
      [
        "å¼",
        "ı"
      ],
      [
        "é",
        "¡"
      ],
      [
        "éĹ",
        "´"
      ],
      [
        "çŃī",
        "åľ°"
      ],
      [
        "æĪ",
        "ĺ"
      ],
      [
        "ä»",
        "»"
      ],
      [
        "ç",
        "ģ"
      ],
      [
        "å",
        "¦"
      ],
      [
        "éĩ",
        "Į"
      ],
      [
        "æ",
        "Ļ"
      ],
      [
        "äº",
        "Į"
      ],
      [
        "è·",
        "¯"
      ],
      [
        "å®",
        "ļ"
      ],
      [
        "ä¸ŃåĽ½",
        "å¤§éĻĨ"
      ],
      [
        "è¿",
        "Ľ"
      ],
      [
        "ç",
        "¤"
      ],
      [
        "åĲ",
        "Ī"
      ],
      [
        "âĢ",
        "ľ"
      ],
      [
        "ç",
        "ķ"
      ],
      [
        "âĢ",
        "Ŀ"
      ],
      [
        "å½",
        "ĵ"
      ],
      [
        "ä¸",
        "ĸ"
      ],
      [
        "æ",
        "¡"
      ],
      [
        "å¤",
        "ĸ"
      ],
      [
        "åı",
        "·"
      ],
      [
        "ä½",
        "Ĩ"
      ],
      [
        "åħ",
        "ĭ"
      ],
      [
        "è",
        "Ĳ"
      ],
      [
        "çº",
        "¿"
      ],
      [
        "è¡",
        "¨"
      ],
      [
        "æľ",
        "ª"
      ],
      [
        "è",
        "İ"
      ],
      [
        "éģ",
        "ĵ"
      ],
      [
        "åħ",
        "¥"
      ],
      [
        "åĽ",
        "Ľ"
      ],
      [
        "é",
        "Ł"
      ],
      [
        "åĮ",
        "ĸ"
      ],
      [
        "å¾",
        "·"
      ],
      [
        "éĩ",
        "į"
      ],
      [
        "æ¬",
        "¡"
      ],
      [
        "é",
        "¾"
      ],
      [
        "åĪ",
        "©"
      ],
      [
        "é",
        "£"
      ],
      [
        "äº",
        "ĭ"
      ],
      [
        "ï¼ī",
        "ï¼Į"
      ],
      [
        "ä¸",
        "ļ"
      ],
      [
        "ç",
        "Ļ"
      ],
      [
        "æ",
        "ı"
      ],
      [
        "ä½",
        "¿"
      ],
      [
        "ä¸Ģ",
        "ä¸ª"
      ],
      [
        "ç",
        "¥"
      ],
      [
        "çĽ®",
        "åīį"
      ],
      [
        "åħ",
        "¨"
      ],
      [
        "éĿ",
        "¢"
      ],
      [
        "å°",
        "Ĩ"
      ],
      [
        "ç«",
        "ĭ"
      ],
      [
        "å",
        "ŀ"
      ],
      [
        "å¤",
        "©"
      ],
      [
        "ä»¥",
        "åıĬ"
      ],
      [
        "å¸",
        "¸"
      ],
      [
        "æ",
        "Ł"
      ],
      [
        "ç§",
        "°"
      ],
      [
        "åĬ",
        "Ľ"
      ],
      [
        "éĩ",
        "ĳ"
      ],
      [
        "é",
        "ĵ"
      ],
      [
        "å¹",
        "³"
      ],
      [
        "å¹",
        "¿"
      ],
      [
        "èį",
        "ī"
      ],
      [
        "ç",
        "¦"
      ],
      [
        "çĲ",
        "Ĩ"
      ],
      [
        "èģ",
        "Ķ"
      ],
      [
        "åŁ",
        "¹"
      ],
      [
        "ç",
        "®"
      ],
      [
        "èĬ",
        "±"
      ],
      [
        "ä¸",
        "¤"
      ],
      [
        "è®",
        "¾"
      ],
      [
        "åĪ",
        "¶"
      ],
      [
        "çİ",
        "ĭ"
      ],
      [
        "æľ",
        "Ł"
      ],
      [
        "æĪ",
        "ĸ"
      ],
      [
        "å®",
        "ī"
      ],
      [
        "ç",
        "¼"
      ],
      [
        "ç",
        "³"
      ],
      [
        "äº",
        "§"
      ],
      [
        "ç",
        "¨"
      ],
      [
        "æķ",
        "Ļ"
      ],
      [
        "çļĦæ",
        "¤įçī©"
      ],
      [
        "åį",
        "ģ"
      ],
      [
        "èĢ",
        "ħ"
      ],
      [
        "é©",
        "¬"
      ],
      [
        "æ",
        "į"
      ],
      [
        "éĥ",
        "½"
      ],
      [
        "ä¸ŃåĽ½å¤§éĻĨ",
        "çļĦ"
      ],
      [
        "å±ŀ",
        "çļĦæ¤įçī©"
      ],
      [
        "ç",
        "ł"
      ],
      [
        "ç«",
        "Ļ"
      ],
      [
        "æĭ",
        "Ķ"
      ],
      [
        "åİ",
        "Ł"
      ],
      [
        "ç",
        "Ĥ"
      ],
      [
        "ä»",
        "¬"
      ],
      [
        "é",
        "ļ"
      ],
      [
        "æ",
        "Ħ"
      ],
      [
        "è",
        "Ľ"
      ],
      [
        "å£",
        "«"
      ],
      [
        "è¯",
        "¥"
      ],
      [
        "éĢ",
        "ļ"
      ],
      [
        "æĢ",
        "§"
      ],
      [
        "çĶŁéķ¿",
        "äºİ"
      ],
      [
        "æ",
        "ģ"
      ],
      [
        "äºº",
        "å·¥"
      ],
      [
        "æł",
        "½"
      ],
      [
        "èī",
        "²"
      ],
      [
        "ï¼",
        "Ľ"
      ],
      [
        "æŃ",
        "£"
      ],
      [
        "æł½",
        "åŁ¹"
      ],
      [
        "1",
        "0"
      ],
      [
        "åŁ",
        "º"
      ],
      [
        "æµ·",
        "æĭĶ"
      ],
      [
        "å·",
        "´"
      ],
      [
        "ç",
        "Ī"
      ],
      [
        "å¼ķ",
        "ç§į"
      ],
      [
        "å·",
        "ŀ"
      ],
      [
        "äººå·¥",
        "å¼ķç§į"
      ],
      [
        "äººå·¥å¼ķç§į",
        "æł½åŁ¹"
      ],
      [
        "æ",
        "ĥ"
      ],
      [
        "çĶ±",
        "äººå·¥å¼ķç§įæł½åŁ¹"
      ],
      [
        "æ¯",
        "Ķ"
      ],
      [
        "åħ",
        "±"
      ],
      [
        "æķ",
        "°"
      ],
      [
        "å°",
        "ļ"
      ],
      [
        "æ",
        "¤įçī©"
      ],
      [
        "é¾",
        "Ļ"
      ],
      [
        "æĺ",
        "İ"
      ],
      [
        "ç±³",
        "çļĦ"
      ],
      [
        "åŀ",
        "ĭ"
      ],
      [
        "ç³",
        "»"
      ],
      [
        "ç»",
        "Ħ"
      ],
      [
        "é»",
        "Ħ"
      ],
      [
        "è¾",
        "¾"
      ],
      [
        "çĽ",
        "¸"
      ],
      [
        "æ",
        "¼"
      ],
      [
        "è¯",
        "Ń"
      ],
      [
        "é",
        "Ĥ"
      ],
      [
        "ç",
        "Ħ"
      ],
      [
        "é",
        "Ķ"
      ],
      [
        "èĭ",
        "±"
      ],
      [
        "çĶŁéķ¿äºİ",
        "æµ·æĭĶ"
      ],
      [
        "ç±³çļĦ",
        "åľ°åĮº"
      ],
      [
        "è",
        "ĳ"
      ],
      [
        "æ°",
        "´"
      ],
      [
        "è¿",
        "Ĳ"
      ],
      [
        "æ¹",
        "¾"
      ],
      [
        "èĽ",
        "Ľ"
      ],
      [
        "å",
        "Ķ"
      ],
      [
        "å·",
        "²"
      ],
      [
        "åħ",
        "°"
      ],
      [
        "å½",
        "¢"
      ],
      [
        "ç",
        "ĸ"
      ],
      [
        "è",
        "£"
      ],
      [
        "éĻ",
        "¢"
      ],
      [
        "ç½",
        "Ĺ"
      ],
      [
        "åı",
        "¸"
      ],
      [
        "å",
        "ģ"
      ],
      [
        "å°",
        "¼"
      ],
      [
        "éĢ",
        "ī"
      ],
      [
        "æı",
        "Ĳ"
      ],
      [
        "ä»",
        "İ"
      ],
      [
        "åŁ",
        "İ"
      ],
      [
        "å",
        "¡"
      ],
      [
        "çº",
        "¦"
      ],
      [
        "åħ",
        "³"
      ],
      [
        "å¦",
        "Ĥ"
      ],
      [
        "åı",
        "¶"
      ],
      [
        "è®",
        "¡"
      ],
      [
        "éŁ",
        "³"
      ],
      [
        "å",
        "¢"
      ],
      [
        "æ±",
        "Ł"
      ],
      [
        "å°ļ",
        "æľª"
      ],
      [
        "åį",
        "İ"
      ],
      [
        "æĢ",
        "»"
      ],
      [
        "çĦ",
        "¶"
      ],
      [
        "éĿ",
        "Ĵ"
      ],
      [
        "å",
        "Ģ"
      ],
      [
        "æĹ",
        "ł"
      ],
      [
        "éĺ",
        "¿"
      ],
      [
        "èµ",
        "·"
      ],
      [
        "å¿",
        "ĥ"
      ],
      [
        "æł",
        "¼"
      ],
      [
        "æĺ",
        "Ł"
      ],
      [
        "çĽ®åīį",
        "å°ļæľª"
      ],
      [
        "åĪĨå¸ĥ",
        "äºİ"
      ],
      [
        "çĽ®åīįå°ļæľª",
        "çĶ±äººå·¥å¼ķç§įæł½åŁ¹"
      ],
      [
        "é",
        "ħ"
      ],
      [
        "ä¹",
        "Ĳ"
      ],
      [
        "åĪ",
        "Ĺ"
      ],
      [
        "é¦",
        "ĸ"
      ],
      [
        "ç©",
        "º"
      ],
      [
        "äº",
        "ĳ"
      ],
      [
        "éĩ",
        "ı"
      ],
      [
        "Ċ",
        "Ċ"
      ],
      [
        "è",
        "±"
      ],
      [
        "é",
        "Ĵ"
      ],
      [
        "ç»",
        "Ł"
      ],
      [
        "e",
        "r"
      ],
      [
        "å²",
        "Ľ"
      ],
      [
        "åĲ",
        "ĳ"
      ],
      [
        "è",
        "Į"
      ],
      [
        "ç",
        "ĭ"
      ],
      [
        "ã",
        "ģ"
      ],
      [
        "å°",
        "±"
      ],
      [
        "æ²",
        "»"
      ],
      [
        "1",
        "2"
      ],
      [
        "ç",
        "ĥ"
      ],
      [
        "è",
        "Ĺ"
      ],
      [
        "å½",
        "±"
      ],
      [
        "åħ",
        "ĥ"
      ],
      [
        "ç",
        "ı"
      ],
      [
        "æ",
        "®"
      ],
      [
        "ç",
        "´"
      ],
      [
        "æ",
        "¶"
      ],
      [
        "å®",
        "ŀ"
      ],
      [
        "é",
        "²"
      ],
      [
        "å§",
        "ĭ"
      ],
      [
        "åı°",
        "æ¹¾"
      ],
      [
        "åº",
        "Ķ"
      ],
      [
        "æ¼",
        "Ķ"
      ],
      [
        "æ",
        "·"
      ],
      [
        "åĽ",
        "¢"
      ],
      [
        "çŁ",
        "³"
      ],
      [
        "åı",
        "Ĺ"
      ],
      [
        "æ",
        "º"
      ],
      [
        "åĮ",
        "ħ"
      ],
      [
        "ç»",
        "ĵ"
      ],
      [
        "åĬ",
        "¡"
      ],
      [
        "åı¯",
        "ä»¥"
      ],
      [
        "ç±³",
        "èĩ³"
      ],
      [
        "å¥",
        "³"
      ],
      [
        "a",
        "n"
      ],
      [
        "çĽ",
        "´"
      ],
      [
        "é",
        "ľ"
      ],
      [
        "1",
        "8"
      ],
      [
        "æ¸",
        "¯"
      ],
      [
        "çķ",
        "Į"
      ],
      [
        "æİ",
        "¥"
      ],
      [
        "åı",
        "£"
      ],
      [
        "ç¨",
        "ĭ"
      ],
      [
        "é¦",
        "Ļ"
      ],
      [
        "è",
        "Ĵ"
      ],
      [
        "1",
        "1"
      ],
      [
        "ç",
        "¿"
      ],
      [
        "çº",
        "§"
      ],
      [
        "æĶ",
        "¹"
      ],
      [
        "æľ",
        "Ŀ"
      ],
      [
        "æ",
        "£"
      ],
      [
        "æī",
        "ĭ"
      ],
      [
        "çļĦ",
        "çī¹"
      ],
      [
        "æ",
        "¢"
      ],
      [
        "å¤",
        "ª"
      ],
      [
        "åı",
        "Ĥ"
      ],
      [
        "æľ",
        "¨"
      ],
      [
        "è®",
        "®"
      ],
      [
        "æ",
        "»"
      ],
      [
        "åº",
        "ľ"
      ],
      [
        "ä¿",
        "Ŀ"
      ],
      [
        "åı",
        "¤"
      ],
      [
        "æ²",
        "³"
      ],
      [
        "éĹ",
        "¨"
      ],
      [
        "äº",
        "Ľ"
      ],
      [
        "åĩ",
        "»"
      ],
      [
        "19",
        "9"
      ],
      [
        "å¤",
        "Ħ"
      ],
      [
        "æ",
        "Ĵ"
      ],
      [
        "ç",
        "Ĭ"
      ],
      [
        "åĪ",
        "Ļ"
      ],
      [
        "æĹ¥",
        "æľ¬"
      ],
      [
        "è",
        "ı"
      ],
      [
        "åı",
        "ª"
      ],
      [
        "å·",
        "Ŀ"
      ],
      [
        "è",
        "Ħ"
      ],
      [
        "å§",
        "Ķ"
      ],
      [
        "åĿ",
        "¡"
      ],
      [
        "è",
        "Ļ"
      ],
      [
        "éķ",
        "ĩ"
      ],
      [
        "è¯",
        "´"
      ],
      [
        "i",
        "n"
      ],
      [
        "ä¼",
        "ł"
      ],
      [
        "æĽ",
        "¾"
      ],
      [
        "è§",
        "Ĩ"
      ],
      [
        "æ´",
        "²"
      ],
      [
        "çľ",
        "ģ"
      ],
      [
        "åı",
        "į"
      ],
      [
        "çĤ",
        "¹"
      ],
      [
        "é¢",
        "Ĩ"
      ],
      [
        "è",
        "º"
      ],
      [
        "æĦ",
        "ı"
      ],
      [
        "åĲ",
        "Ħ"
      ],
      [
        "åį",
        "ķ"
      ],
      [
        "æ¹",
        "ĸ"
      ],
      [
        "ä¸",
        "ĩ"
      ],
      [
        "å®",
        "ĥ"
      ],
      [
        "å¯",
        "¼"
      ],
      [
        "ç±",
        "»"
      ],
      [
        "åħ¬",
        "åı¸"
      ],
      [
        "äº",
        "¤"
      ],
      [
        "èĳ",
        "Ĺ"
      ],
      [
        "æµ",
        "ģ"
      ],
      [
        "æľī",
        "æ¤įçī©"
      ],
      [
        "ç",
        "¡"
      ],
      [
        "è¿",
        "ĺ"
      ],
      [
        "o",
        "r"
      ],
      [
        "äº",
        "Ķ"
      ],
      [
        "æŀ",
        "ľ"
      ],
      [
        "é",
        "ª"
      ],
      [
        "èİ",
        "·"
      ],
      [
        "ç¾İ",
        "åĽ½"
      ],
      [
        "ç",
        "²"
      ],
      [
        "åĵ",
        "ģ"
      ],
      [
        "çļĦçī¹",
        "æľīæ¤įçī©"
      ],
      [
        "ä¸",
        "ĵ"
      ],
      [
        "ä¹",
        "¦"
      ],
      [
        "æĿ",
        "¡"
      ],
      [
        "æĿ",
        "ĳ"
      ],
      [
        "èº",
        "«"
      ],
      [
        "æĮ",
        "ĩ"
      ],
      [
        "éĽ",
        "Ĩ"
      ],
      [
        "å",
        "ĸ"
      ],
      [
        "å°",
        "ĳ"
      ],
      [
        "å¼",
        "ł"
      ],
      [
        "æĽ",
        "´"
      ],
      [
        "åĽ",
        "ŀ"
      ],
      [
        "åĪ",
        "«"
      ],
      [
        "åİ",
        "¿"
      ],
      [
        "ç»",
        "´"
      ],
      [
        "ä¸ŃåĽ½",
        "çļĦçī¹æľīæ¤įçī©"
      ],
      [
        "æ",
        "¨"
      ],
      [
        "èĭ",
        "ı"
      ],
      [
        "1",
        "5"
      ],
      [
        "ä¸",
        "¾"
      ],
      [
        "1",
        "6"
      ],
      [
        "åħ",
        "ī"
      ],
      [
        "ä¹",
        "ī"
      ],
      [
        "å¸",
        "¦"
      ],
      [
        "åĪĨå¸ĥ",
        "åľ¨"
      ],
      [
        "å¼Ģ",
        "å§ĭ"
      ],
      [
        "ç¤",
        "¾"
      ],
      [
        "äºĳ",
        "åįĹ"
      ],
      [
        "éĻ",
        "ħ"
      ],
      [
        "ä½¿",
        "çĶ¨"
      ],
      [
        "o",
        "n"
      ],
      [
        "åı",
        "²"
      ],
      [
        "ç",
        "Ĺ"
      ],
      [
        "è®",
        "¤"
      ],
      [
        "å¸",
        "Ī"
      ],
      [
        "è§",
        "ģ"
      ],
      [
        "å±",
        "ķ"
      ],
      [
        "å",
        "¨"
      ],
      [
        "å¤",
        "´"
      ],
      [
        "éĵ",
        "ģ"
      ],
      [
        "æ°",
        "Ķ"
      ],
      [
        "å",
        "ł"
      ],
      [
        "ç¬¬",
        "ä¸Ģ"
      ],
      [
        "å",
        "ķ"
      ],
      [
        "æĬ",
        "¥"
      ],
      [
        "åı",
        "ĸ"
      ],
      [
        "äº",
        "¬"
      ],
      [
        "è¿",
        "ĳ"
      ],
      [
        "åį",
        "¡"
      ],
      [
        "è§",
        "Ĵ"
      ],
      [
        "ç®",
        "¡"
      ],
      [
        "æĪĲ",
        "ä¸º"
      ],
      [
        "åİ",
        "Ĩ"
      ],
      [
        "åĲ",
        "ī"
      ],
      [
        "æī",
        "ĵ"
      ],
      [
        "åı",
        "Ī"
      ],
      [
        "èĬ",
        "Ĥ"
      ],
      [
        "æŃ",
        "Į"
      ],
      [
        "å®",
        "ĺ"
      ],
      [
        "è¾",
        "¹"
      ],
      [
        "æĮ",
        "ģ"
      ],
      [
        "çĻ",
        "½"
      ],
      [
        "æ¸",
        "¸"
      ],
      [
        "åĨ",
        "³"
      ],
      [
        "æ¯",
        "Ľ"
      ],
      [
        "ç¦",
        "ı"
      ],
      [
        "åı",
        "ĺ"
      ],
      [
        "éĿ",
        "ŀ"
      ],
      [
        "æĽ",
        "²"
      ],
      [
        "éĢ",
        "ł"
      ],
      [
        "è§",
        "£"
      ],
      [
        "èĪ",
        "ª"
      ],
      [
        "çī",
        "ĩ"
      ],
      [
        "ä»",
        "¶"
      ],
      [
        "æ²",
        "¡"
      ],
      [
        "å",
        "ĭ"
      ],
      [
        "æł",
        "¡"
      ],
      [
        "è¶",
        "³"
      ],
      [
        "å",
        "Ļ"
      ],
      [
        "å¤§",
        "åŃ¦"
      ],
      [
        "åŃ",
        "Ĺ"
      ],
      [
        "æľ",
        "¯"
      ],
      [
        "åħ",
        "ļ"
      ],
      [
        "çĶŁ",
        "äºİ"
      ],
      [
        "ï¼ī",
        "ãĢĤ"
      ],
      [
        "åĽ",
        "¾"
      ],
      [
        "çī",
        "Ī"
      ],
      [
        "åī",
        "§"
      ],
      [
        "åĳ",
        "½"
      ],
      [
        "ç",
        "Ŀ"
      ],
      [
        "éĽ",
        "Ħ"
      ],
      [
        "ä»¥åıĬ",
        "ä¸ŃåĽ½å¤§éĻĨçļĦ"
      ],
      [
        "å¾",
        "Ģ"
      ],
      [
        "åį",
        "³"
      ],
      [
        "çļĦ",
        "ä¸Ģ"
      ],
      [
        "è¿",
        "ŀ"
      ],
      [
        "åħ",
        "Ī"
      ],
      [
        "é£",
        "İ"
      ],
      [
        "æĭ",
        "¬"
      ],
      [
        "è½",
        "¬"
      ],
      [
        "åŃ",
        "£"
      ],
      [
        "åĨ",
        "¬"
      ],
      [
        "èĪ",
        "¬"
      ],
      [
        "ç¤",
        "º"
      ],
      [
        "åį",
        "°"
      ],
      [
        "åĨ",
        "į"
      ],
      [
        "æį",
        "®"
      ],
      [
        "èĹ",
        "ı"
      ],
      [
        "è£",
        "ħ"
      ],
      [
        "å¥",
        "ĸ"
      ],
      [
        "çº",
        "¢"
      ],
      [
        "æ²",
        "Ļ"
      ],
      [
        "èģ",
        "Į"
      ],
      [
        "ä½į",
        "äºİ"
      ],
      [
        "ä¸",
        "Ķ"
      ],
      [
        "æ´",
        "»"
      ],
      [
        "æĶ¿",
        "åºľ"
      ],
      [
        "1",
        "3"
      ],
      [
        "çº",
        "ª"
      ],
      [
        "ä¿",
        "¡"
      ],
      [
        "æľ",
        "į"
      ],
      [
        "æ¯",
        "ı"
      ],
      [
        "é»",
        "ĳ"
      ],
      [
        "åĮħ",
        "æĭ¬"
      ],
      [
        "æ¸",
        "ħ"
      ],
      [
        "æĶ",
        "¯"
      ],
      [
        "æ",
        "ĳ"
      ],
      [
        "ä¸»",
        "è¦ģ"
      ],
      [
        "1",
        "4"
      ],
      [
        "1",
        "7"
      ],
      [
        "äº",
        "¦"
      ],
      [
        "åĽ½",
        "å®¶"
      ],
      [
        "è¾",
        "ĥ"
      ],
      [
        "åķ",
        "Ĩ"
      ],
      [
        "åİ",
        "»"
      ],
      [
        "ç¥",
        "ŀ"
      ],
      [
        "åĳ",
        "¨"
      ],
      [
        "çŁ",
        "¥"
      ],
      [
        "åħ",
        "·"
      ],
      [
        "èĥ",
        "Ĩ"
      ],
      [
        "çł",
        "Ķ"
      ],
      [
        "ä¸ĸ",
        "çķĮ"
      ],
      [
        "åĻ",
        "¨"
      ],
      [
        "æł",
        "¹"
      ],
      [
        "æŃ",
        "¦"
      ],
      [
        "19",
        "8"
      ],
      [
        "200",
        "9"
      ],
      [
        "èµ",
        "Ħ"
      ],
      [
        "å¤",
        "«"
      ],
      [
        "å¼",
        "º"
      ],
      [
        "è®",
        "º"
      ],
      [
        "åĽĽ",
        "å·Ŀ"
      ],
      [
        "å®",
        "Į"
      ],
      [
        "å®",
        "¢"
      ],
      [
        "æł",
        "ĩ"
      ],
      [
        "æĥ",
        "ħ"
      ],
      [
        "ç",
        "Į"
      ],
      [
        "åľ",
        "Ł"
      ],
      [
        "è¿Ľ",
        "è¡Į"
      ],
      [
        "æĿ",
        "İ"
      ],
      [
        "å¾",
        "Ī"
      ],
      [
        "è¶",
        "ħ"
      ],
      [
        "æľ",
        "±"
      ],
      [
        "æ¬",
        "§"
      ],
      [
        "æ³",
        "¢"
      ],
      [
        "è´",
        "¨"
      ],
      [
        "ç¦",
        "»"
      ],
      [
        "e",
        "n"
      ],
      [
        "èĤ",
        "²"
      ],
      [
        "a",
        "r"
      ],
      [
        "é¾Ļ",
        "èĥĨ"
      ],
      [
        "00",
        "0"
      ],
      [
        "é¦Ļ",
        "æ¸¯"
      ],
      [
        "å±",
        "Ģ"
      ],
      [
        "ç½",
        "ĳ"
      ],
      [
        "è¶",
        "Ĭ"
      ],
      [
        "ä¸Ģ",
        "èĪ¬"
      ],
      [
        "åĪ",
        "Ľ"
      ],
      [
        "æ²¡",
        "æľī"
      ],
      [
        "çĶ±",
        "äºİ"
      ],
      [
        "ä¿",
        "®"
      ],
      [
        "åħ",
        "µ"
      ],
      [
        "æĶ",
        "¶"
      ],
      [
        "ä»ĸ",
        "ä»¬"
      ],
      [
        "åĪ",
        "Ŀ"
      ],
      [
        "å±±",
        "åĿ¡"
      ],
      [
        "å®",
        "¹"
      ],
      [
        "çº",
        "³"
      ],
      [
        "æĶ",
        "¾"
      ],
      [
        "è§",
        "Ĥ"
      ],
      [
        "åĬ",
        "Ł"
      ],
      [
        "è",
        "ħ"
      ],
      [
        "è®",
        "°"
      ],
      [
        "éĺ",
        "³"
      ],
      [
        "ç¬¬",
        "äºĮ"
      ],
      [
        "æĻ",
        "®"
      ],
      [
        "é¢",
        "ĺ"
      ],
      [
        "åĽ½",
        "éĻħ"
      ],
      [
        "å¤",
        "į"
      ],
      [
        "ã",
        "Ĥ"
      ],
      [
        "ä»",
        "Ĭ"
      ],
      [
        "éĥ¨",
        "åĪĨ"
      ],
      [
        "æĪ",
        "ı"
      ],
      [
        "å¥",
        "¥"
      ],
      [
        "æĹ",
        "ı"
      ],
      [
        "å°",
        "¾"
      ],
      [
        "å±",
        "ħ"
      ],
      [
        "åľ",
        "£"
      ],
      [
        "æĿ",
        "ĥ"
      ],
      [
        "çĬ",
        "¶"
      ],
      [
        "é",
        "¸"
      ],
      [
        "æŃ",
        "»"
      ],
      [
        "ä¾",
        "Ľ"
      ],
      [
        "åĨ¬",
        "éĿĴ"
      ],
      [
        "è®",
        "¸"
      ],
      [
        "åĬ",
        "ŀ"
      ],
      [
        "å¡",
        "ŀ"
      ],
      [
        "ç",
        "ĵ"
      ],
      [
        "åı",
        "¦"
      ],
      [
        "èĲ",
        "¥"
      ],
      [
        "åħ¶",
        "ä¸Ń"
      ],
      [
        "äºº",
        "æ°ĳ"
      ],
      [
        "åħ",
        "«"
      ],
      [
        "æŀ",
        "Ħ"
      ],
      [
        "åĪ",
        "Ĵ"
      ],
      [
        "æ",
        "¥"
      ],
      [
        "è§",
        "Ħ"
      ],
      [
        "5",
        "0"
      ],
      [
        "ç»",
        "Ń"
      ],
      [
        "éĹ",
        "®"
      ],
      [
        "å§Ķ",
        "åĳĺ"
      ],
      [
        "èĢ",
        "ģ"
      ],
      [
        "çģ",
        "«"
      ],
      [
        "å",
        "Ħ"
      ],
      [
        "å¥",
        "½"
      ],
      [
        "éļ",
        "ı"
      ],
      [
        "a",
        "l"
      ],
      [
        "çĪ",
        "±"
      ],
      [
        "åı",
        "Į"
      ],
      [
        "åħ",
        "Ń"
      ],
      [
        "åį",
        "ı"
      ],
      [
        "æ´",
        "¾"
      ],
      [
        "æ®",
        "µ"
      ],
      [
        "éĻ",
        "¤"
      ],
      [
        "æł",
        "ĳ"
      ],
      [
        "çĶ",
        "°"
      ],
      [
        "ç»",
        "Ļ"
      ],
      [
        "ä¼",
        "¯"
      ],
      [
        "æ°",
        "ı"
      ],
      [
        "ç©",
        "¶"
      ],
      [
        "å",
        "ĥ"
      ],
      [
        "æ",
        "ļ"
      ],
      [
        "æĬ",
        "¤"
      ],
      [
        "é£",
        "ŀ"
      ],
      [
        "è",
        "¨"
      ],
      [
        "æķ",
        "ħ"
      ],
      [
        "çĶ",
        "»"
      ],
      [
        "å¥",
        "¹"
      ],
      [
        "ç",
        "ĳ"
      ],
      [
        "ä¼",
        "Ĭ"
      ],
      [
        "æ",
        "¾"
      ],
      [
        "åħ¶",
        "ä»ĸ"
      ],
      [
        "åĵ",
        "Ī"
      ],
      [
        "åŃ",
        "ĺ"
      ],
      [
        "äº",
        "ī"
      ],
      [
        "éĩ",
        "İ"
      ],
      [
        "è¨",
        "Ģ"
      ],
      [
        "éĢ",
        "Ł"
      ],
      [
        "åį",
        "«"
      ],
      [
        "ç",
        "¢"
      ],
      [
        "å¯",
        "Ĩ"
      ],
      [
        "å°",
        "Ħ"
      ],
      [
        "æº",
        "Ĳ"
      ],
      [
        "å¸",
        "Ŀ"
      ],
      [
        "è±",
        "Ĩ"
      ],
      [
        "çłĶ",
        "ç©¶"
      ],
      [
        "ç½",
        "®"
      ],
      [
        "é¡",
        "¹"
      ],
      [
        "è°",
        "ĥ"
      ],
      [
        "äº",
        "²"
      ],
      [
        "ä¹",
        "¡"
      ],
      [
        "åĶ",
        "±"
      ],
      [
        "æ",
        "ħ"
      ],
      [
        "åĨ",
        "ł"
      ],
      [
        "ä»",
        "¤"
      ],
      [
        "åº",
        "§"
      ],
      [
        "æĺ¯",
        "ä¸Ģ"
      ],
      [
        "åĬ¨",
        "çī©"
      ],
      [
        "çĶŁéķ¿",
        "åľ¨"
      ],
      [
        "å¤",
        "±"
      ],
      [
        "å¸",
        "Į"
      ],
      [
        "æĶ",
        "»"
      ],
      [
        "èİ·",
        "å¾Ĺ"
      ],
      [
        "ï¼ī",
        "ãĢģ"
      ],
      [
        "é",
        "¼"
      ],
      [
        "åĬ",
        "©"
      ],
      [
        "é£",
        "Ł"
      ],
      [
        "å®",
        "£"
      ],
      [
        "å¿",
        "Ĺ"
      ],
      [
        "å±",
        "Ĥ"
      ],
      [
        "å®",
        "ģ"
      ],
      [
        "åħ",
        "´"
      ],
      [
        "åĽł",
        "ä¸º"
      ],
      [
        "ä¸",
        "¹"
      ],
      [
        "éĻ",
        "Ĳ"
      ],
      [
        "æĴ",
        "Ń"
      ],
      [
        "i",
        "c"
      ],
      [
        "ç»",
        "Ī"
      ],
      [
        "åĽ",
        "Ń"
      ],
      [
        "ç¼",
        "ĸ"
      ],
      [
        "è®¤",
        "ä¸º"
      ],
      [
        "çĶ",
        "²"
      ],
      [
        "åĦ",
        "¿"
      ],
      [
        "æŀ",
        "ª"
      ],
      [
        "ä»£",
        "è¡¨"
      ],
      [
        "å½",
        "ķ"
      ],
      [
        "åĽł",
        "æŃ¤"
      ],
      [
        "é",
        "±"
      ],
      [
        "æ¡",
        "Ī"
      ],
      [
        "Ġ",
        "("
      ],
      [
        "åĩ",
        "Ĩ"
      ],
      [
        "é±",
        "¼"
      ],
      [
        "æİ",
        "¨"
      ],
      [
        "èĲ",
        "¨"
      ],
      [
        "æŃ",
        "¥"
      ],
      [
        "å¤",
        "ĩ"
      ],
      [
        "çİ",
        "¯"
      ],
      [
        "è´",
        "µ"
      ],
      [
        "æķ",
        "´"
      ],
      [
        "3",
        "0"
      ],
      [
        "æł",
        "·"
      ],
      [
        "åĵ",
        "¥"
      ],
      [
        "å·",
        "±"
      ],
      [
        "æĿ",
        "¾"
      ],
      [
        "æİ",
        "Ĵ"
      ],
      [
        "çĽ",
        "Ł"
      ],
      [
        "ç»",
        "Ĩ"
      ],
      [
        "åĩ",
        "ł"
      ],
      [
        "èĲ",
        "½"
      ],
      [
        "ç",
        "ª"
      ],
      [
        "a",
        "t"
      ],
      [
        "æī",
        "į"
      ],
      [
        "çľ",
        "Ł"
      ],
      [
        "èĮ",
        "ĥ"
      ],
      [
        "é",
        "¥"
      ],
      [
        "æ¯",
        "į"
      ],
      [
        "é«ĺ",
        "éĽĦ"
      ],
      [
        "æŀĹ",
        "ä¸Ń"
      ],
      [
        "çĻ",
        "¾"
      ],
      [
        "ä¸",
        "ĥ"
      ],
      [
        "ä¼",
        "Ĺ"
      ],
      [
        "éĩ",
        "ĩ"
      ],
      [
        "åĲĮ",
        "æĹ¶"
      ],
      [
        "ä¸Ń",
        "çļĦ"
      ],
      [
        "æľº",
        "è½¦"
      ],
      [
        "ç»",
        "ĩ"
      ],
      [
        "æ±",
        "ī"
      ],
      [
        "éľ",
        "Ģ"
      ],
      [
        "ç»",
        "§"
      ],
      [
        "æ±",
        "Ĥ"
      ],
      [
        "ä»",
        "½"
      ],
      [
        "e",
        "s"
      ],
      [
        "é¡",
        "¿"
      ],
      [
        "è®¾",
        "è®¡"
      ],
      [
        "å±",
        "Ĭ"
      ],
      [
        "ç¾",
        "¤"
      ],
      [
        "å®",
        "Ĺ"
      ],
      [
        "åį",
        "ł"
      ],
      [
        "ç´",
        "ł"
      ],
      [
        "é",
        "º"
      ],
      [
        "çĶµ",
        "å½±"
      ],
      [
        "éĽ",
        "·"
      ],
      [
        "é²",
        "ģ"
      ],
      [
        "è",
        "Ŀ"
      ],
      [
        "åį",
        "Ĭ"
      ],
      [
        "åŁ",
        "Ł"
      ],
      [
        "è¾",
        "ĳ"
      ],
      [
        "åĳ",
        "Ĭ"
      ],
      [
        "ç§",
        "¯"
      ],
      [
        "ä¿",
        "Ħ"
      ],
      [
        "æĭ",
        "ħ"
      ],
      [
        "èĩ",
        "´"
      ],
      [
        "ä¹ĭ",
        "åĲİ"
      ],
      [
        "¹",
        "èĽĽ"
      ],
      [
        "æĪ",
        "ĳ"
      ],
      [
        "æĿ",
        "Ģ"
      ],
      [
        "å½ĵ",
        "æĹ¶"
      ],
      [
        "é²",
        "ľ"
      ],
      [
        "å¡",
        "Ķ"
      ],
      [
        "åĿ",
        "ĩ"
      ],
      [
        "å¸",
        "Ń"
      ],
      [
        "çİ",
        "ĩ"
      ],
      [
        "ä¾",
        "ĭ"
      ],
      [
        "èī",
        "º"
      ],
      [
        "åį°",
        "åº¦"
      ],
      [
        "ä½ľ",
        "ä¸º"
      ],
      [
        "i",
        "s"
      ],
      [
        "ä¹ĭ",
        "ä¸Ģ"
      ],
      [
        "é",
        "³"
      ],
      [
        "é",
        "¹"
      ],
      [
        "ä¸",
        "Ľ"
      ],
      [
        "å¤",
        "®"
      ],
      [
        "æĹ",
        "©"
      ],
      [
        "æ",
        "¦"
      ],
      [
        "çĻ",
        "»"
      ],
      [
        "çĹ",
        "ħ"
      ],
      [
        "åį",
        "ĩ"
      ],
      [
        "æµ",
        "İ"
      ],
      [
        "æľº",
        "åľº"
      ],
      [
        "æĺ",
        "ĵ"
      ],
      [
        "çĪ",
        "¶"
      ],
      [
        "æµ",
        "ĭ"
      ],
      [
        "å²",
        "ģ"
      ],
      [
        "ä¹",
        "Ŀ"
      ],
      [
        "è¯",
        "į"
      ],
      [
        "å¼",
        "¹"
      ],
      [
        "è¯",
        "ķ"
      ],
      [
        "å¥",
        "ĩ"
      ],
      [
        "éĤ",
        "£"
      ],
      [
        "ä¼",
        "¦"
      ],
      [
        "è°",
        "·"
      ],
      [
        "éħ",
        "į"
      ],
      [
        "èĴ",
        "Ļ"
      ],
      [
        "æĸ",
        "Ļ"
      ],
      [
        "æ·",
        "±"
      ],
      [
        "æ¾",
        "³"
      ],
      [
        "ä½",
        "Ľ"
      ],
      [
        "æĺ¯",
        "ä¸ŃåĽ½çļĦçī¹æľīæ¤įçī©"
      ],
      [
        "ä¸į",
        "åĲĮ"
      ],
      [
        "çĥ",
        "Ń"
      ],
      [
        "æ",
        "Ĥ"
      ],
      [
        "æŀ",
        "ģ"
      ],
      [
        "é¦",
        "Ĩ"
      ],
      [
        "æ¨",
        "¡"
      ],
      [
        "è¥¿",
        "èĹı"
      ],
      [
        "æ´",
        "ĭ"
      ],
      [
        "éŁ³",
        "ä¹Ĳ"
      ],
      [
        "å¢",
        "ŀ"
      ],
      [
        "æķ",
        "Ī"
      ],
      [
        "å",
        "´"
      ],
      [
        "Ġ",
        "S"
      ],
      [
        "å¨",
        "ģ"
      ],
      [
        "è¯",
        "Ħ"
      ],
      [
        "èĩª",
        "å·±"
      ],
      [
        "æĹ¶",
        "éĹ´"
      ],
      [
        "è",
        "Ł"
      ],
      [
        "ä»",
        "į"
      ],
      [
        "åĪĨå¸ĥäºİ",
        "ä¸ŃåĽ½å¤§éĻĨçļĦ"
      ],
      [
        "5",
        "00"
      ],
      [
        "çĭ",
        "¬"
      ],
      [
        "æĺ",
        "¾"
      ],
      [
        "éĺ",
        "²"
      ],
      [
        "çı",
        "Ń"
      ],
      [
        "e",
        "l"
      ],
      [
        "ä»",
        "ħ"
      ],
      [
        "æĬ",
        "Ģ"
      ],
      [
        "æĬ",
        "ķ"
      ],
      [
        "ä¸º",
        "ä¸ŃåĽ½çļĦçī¹æľīæ¤įçī©"
      ],
      [
        "å",
        "³"
      ],
      [
        "é",
        "Ń"
      ],
      [
        "l",
        "a"
      ],
      [
        "è´",
        "¥"
      ],
      [
        "19",
        "4"
      ],
      [
        "æ´",
        "Ľ"
      ],
      [
        "é",
        "½"
      ],
      [
        "åĩº",
        "çİ°"
      ],
      [
        "åĽ",
        "´"
      ],
      [
        "ä»ĸ",
        "çļĦ"
      ],
      [
        "éĵ",
        "¶"
      ],
      [
        "è¾",
        "ĸ"
      ],
      [
        "çķ",
        "Ļ"
      ],
      [
        "ç",
        "ħ"
      ],
      [
        "è½",
        "½"
      ],
      [
        "èĪª",
        "ç©º"
      ],
      [
        "å±ŀ",
        "çļĦ"
      ],
      [
        "è¡",
        "Ĺ"
      ],
      [
        "ä¸Ń",
        "å¤®"
      ],
      [
        "çļĦ",
        "ä¸Ģä¸ª"
      ],
      [
        "çĸ",
        "Ĩ"
      ],
      [
        "æ³",
        "°"
      ],
      [
        "èĪ",
        "°"
      ],
      [
        "åı¯",
        "èĥ½"
      ],
      [
        "æģ",
        "©"
      ],
      [
        "ä¸Ń",
        "åįİ"
      ],
      [
        "éĢļ",
        "è¿ĩ"
      ],
      [
        "åĪĨå¸ĥåľ¨",
        "ä¸ŃåĽ½å¤§éĻĨçļĦ"
      ],
      [
        "æ",
        "½"
      ],
      [
        "ç»Ħ",
        "ç»ĩ"
      ],
      [
        "è´",
        "¹"
      ],
      [
        "ã",
        "ĥ"
      ],
      [
        "è¡Į",
        "æĶ¿"
      ],
      [
        "æ¸¸",
        "æĪı"
      ],
      [
        "è¯",
        "ģ"
      ],
      [
        "å¯",
        "º"
      ],
      [
        "åĵ",
        "į"
      ],
      [
        "èŁ",
        "¹èĽĽ"
      ],
      [
        "è¿Ĳ",
        "åĬ¨"
      ],
      [
        "çļ",
        "ĩ"
      ],
      [
        "ä½",
        "İ"
      ],
      [
        "çĶ",
        "·"
      ],
      [
        "åıĳ",
        "çİ°"
      ],
      [
        "200",
        "8"
      ],
      [
        "ç§°",
        "ä¸º"
      ],
      [
        "ç³»",
        "ç»Ł"
      ],
      [
        "å¹",
        "²"
      ],
      [
        "å¾",
        "ĭ"
      ],
      [
        "èģĶ",
        "èµĽ"
      ],
      [
        "æĸ",
        "Ĺ"
      ],
      [
        "å¹¿",
        "è¥¿"
      ],
      [
        "åį",
        "ļ"
      ],
      [
        "å¹¿",
        "ä¸ľ"
      ],
      [
        "è",
        "ĵ"
      ],
      [
        "å·¥",
        "ä½ľ"
      ],
      [
        "çļ",
        "®"
      ],
      [
        "ãĢį",
        "ï¼Į"
      ],
      [
        "çĶµ",
        "è§Ĩ"
      ],
      [
        "ï¼Ī",
        "ï¼ī"
      ],
      [
        "ä½Ĩ",
[...]
